/**
  ******************************************************************************
  * @file    activity_detection_data_params.c
  * @author  AST Embedded Analytics Research Platform
  * @date    Sun Apr  9 00:41:43 2023
  * @brief   AI Tool Automatic Code Generator for Embedded NN computing
  ******************************************************************************
  * Copyright (c) 2023 STMicroelectronics.
  * All rights reserved.
  *
  * This software is licensed under terms that can be found in the LICENSE file
  * in the root directory of this software component.
  * If no LICENSE file comes with this software, it is provided AS-IS.
  ******************************************************************************
  */

#include "activity_detection_data_params.h"


/**  Activations Section  ****************************************************/
ai_handle g_activity_detection_activations_table[1 + 2] = {
  AI_HANDLE_PTR(AI_MAGIC_MARKER),
  AI_HANDLE_PTR(NULL),
  AI_HANDLE_PTR(AI_MAGIC_MARKER),
};




/**  Weights Section  ********************************************************/
AI_ALIGNED(32)
const ai_u64 s_activity_detection_weights_array_u64[6038] = {
  0xbc086107bd11c1ccU, 0xbdad59f6be1d35a5U, 0x3dfb0ebfbc20e252U, 0x3b4ffc01bded83bdU,
  0x3ecb13203d6c4e1cU, 0x3efec4363ed626c9U, 0xbcb13a953ead895cU, 0xbe813ab73e889d28U,
  0x3e84ebf0bda275b3U, 0x3ea626eb3edd893aU, 0x3d84ebf03d313a95U, 0xbe4761e73e04ebf0U,
  0x3ed27591bd93b0d1U, 0x3cb13a953e13b0d1U, 0x3dec4e1c3e29d824U, 0x3d93b0d13e8c4e60U,
  0x3dcec458bda275b3U, 0x3ead895c3e7b12fdU, 0xbd13b0d13e4ec458U, 0xbebc4e3ebcec4e1cU,
  0x3e64ebab3d4ec458U, 0x3e29d8243e1b1342U, 0xbd13b0d13db13a95U, 0xbdbfff763e13b0d1U,
  0x3dcec458bbec4e1cU, 0x3dfb12fd3e889d28U, 0x3e1b13423e5626c9U, 0x3d13b0d13eb4ebcdU,
  0x3e6c4e1c3bec4e1cU, 0x3e4ec4583e889d28U, 0xbcb13a953c6c4e1cU, 0x3dcec4583e8c4e60U,
  0x3e813ab7bc6c4e1cU, 0x3e389d063e73b08dU, 0x3d6c4e1c3e84ebf0U, 0x3dfb12fd3e8c4e60U,
  0x3e3fff76bdb13a95U, 0x3ebfff763efb12fdU, 0x3d4ec4583e7b12fdU, 0x3ddd893a3ea275b3U,
  0x3dfb12fdbdbfff76U, 0x3e97620a3eb89d06U, 0x3d93b0d13e4761e7U, 0xbdbfff763e64ebabU,
  0x3e3fff76bc6c4e1cU, 0x3ebfff763e5d893aU, 0x3dfb12fdU, 0xbbec4e1c3eb13a95U,
  0x3e13b0d1bd6c4e1cU, 0x3e7b12fd3eb13a95U, 0x3c6c4e1c3e4ec458U, 0xbdbfff763ebfff76U,
  0x3e97620abd93b0d1U, 0x3e5d893a3e64ebabU, 0x3d6c4e1c3e29d824U, 0x3dbfff763e84ebf0U,
  0x3e3fff763bec4e1cU, 0x3e4ec4583ec3b0afU, 0xbcb13a953c6c4e1cU, 0x3e2275b33ebfff76U,
  0x3e3fff76bd84ebf0U, 0x3dcec4583eb89d06U, 0x3cb13a953dfb12fdU, 0xbd93b0d13e84ebf0U,
  0x3e93b0d1be13b0d1U, 0x3e0c4e603e4ec458U, 0x3cec4e1c3dcec458U, 0x3d4ec4583eb13a95U,
  0x3e97620a3d4ec458U, 0x3ed9d8013ead895cU, 0x3da275b33e8c4e60U, 0xbe29d8243e5626c9U,
  0x3d13b0d1bd93b0d1U, 0x3e9ec47b3e73b08dU, 0x3d4ec4583e97620aU, 0xbdec4e1c3e2275b3U,
  0xbdbfff76bd84ebf0U, 0x3ec3b0af3e4ec458U, 0x3e29d824bd6c4e1cU, 0xbe4ec4583ec761e7U,
  0x3ddd893a00000000U, 0x3ea626eb3e3fff76U, 0x3dcec458bcec4e1cU, 0x3cb13a953eec4e1cU,
  0x3e84ebf0bbec4e1cU, 0x3ee89ce33e73b08dU, 0x3e2275b33dfb12fdU, 0xbe6c4e1c3ef761c5U,
  0x3edd893a3d6c4e1cU, 0x3f17620a3ee13a72U, 0xbd4ec4583e13b0d1U, 0x3cb13a953f013ab7U,
  0x3ecec458bdbfff76U, 0x3e64ebab3f244e4fU, 0xbcec4e1c3e5626c9U, 0x3d6c4e1c3e5d893aU,
  0x3e4ec4583e0c4e60U, 0x3e4761e73e7b12fdU, 0xbd313a953dec4e1cU, 0xbe4761e73e64ebabU,
  0x3ebc4e3ebdfb12fdU, 0x3dbfff763eb4ebcdU, 0xbd6c4e1c3d93b0d1U, 0x3bec4e1c3e813ab7U,
  0x3ea275b3be389d06U, 0x3e93b0d13eb4ebcdU, 0x3db13a953e8fff99U, 0xbe889d28bcec4e1cU,
  0x3dbfff763ddd893aU, 0x3e4ec4583d93b0d1U, 0x3dcec4583d4ec458U, 0xbe8c4e603da275b3U,
  0x3e13b0d1bc6c4e1cU, 0x3e6c4e1c3dfb12fdU, 0x3e1b1342U, 0xbcec4e1c3e7b12fdU,
  0x3ebfff76bc6c4e1cU, 0x3e93b0d13ea9d824U, 0x3db13a953ddd893aU, 0x3e389d063ead895cU,
  0x3ea626ebbd84ebf0U, 0x3e7b12fd3e9b1342U, 0x3d313a953e813ab7U, 0x3da275b33edd893aU,
  0x3e3fff76be04ebf0U, 0x3e2275b33e93b0d1U, 0x3cec4e1c3dbfff76U, 0xbe2275b33e889d28U,
  0x3e97620a3cb13a95U, 0x3dfb12fd3ec3b0afU, 0x3e13b0d13e313a95U, 0x3cec4e1c3dfb12fdU,
  0x3e7b12fd3bec4e1cU, 0x3efb12fd3e29d824U, 0xbcec4e1c3e1b1342U, 0xbbec4e1c3ef3b08dU,
  0x3dcec458bc6c4e1cU, 0x3e5626c93ed27591U, 0x3e13b0d13d313a95U, 0xbd6c4e1c3ea275b3U,
  0x3ea275b33bec4e1cU, 0x3dfb12fd3dcec458U, 0x3d93b0d13e389d06U, 0x3dcec4583ead895cU,
  0x3e313a953cec4e1cU, 0x3e1b13423ea9d824U, 0x3e313a953d13b0d1U, 0x3c6c4e1c3e389d06U,
  0x3ec3b0afbdb13a95U, 0x3d93b0d13ebfff76U, 0x3e04ebf03e313a95U, 0x3dfb12fdU,
  0x3eb4ebcd3c6c4e1cU, 0x3e313a953e73b08dU, 0x3d6c4e1c3e04ebf0U, 0x3e1b13423d4ec458U,
  0x3ead895c3c6c4e1cU, 0x3e3fff763e4ec458U, 0x3c6c4e1c3e84ebf0U, 0xbe0c4e603e313a95U,
  0x3e73b08d3d6c4e1cU, 0x3dec4e1c3e84ebf0U, 0x3e29d8243e4761e7U, 0x3bec4e1c3db13a95U,
  0x3da275b33cb13a95U, 0x3dcec4583e5626c9U, 0x3d93b0d1bdb13a95U, 0x3cec4e1c3e9b1342U,
  0x3cb13a95bddd893aU, 0x3ead895c3c6c4e1cU, 0x3cec4e1c3db13a95U, 0x3d84ebf03e7b12fdU,
  0x3e64ebabbdb13a95U, 0x3e9b13423ecec458U, 0x3d13b0d1U, 0x3d4ec4583ed626c9U,
  0x3ecb13203e0c4e60U, 0x3f0c4e603ed27591U, 0x3e5d893aU, 0xbe0c4e603f2275b3U,
  0xbd84ebf0bdcec458U, 0x3bec4e1cbc6c4e1cU, 0x3da275b300000000U, 0xbcec4e1cU,
  0xbd93b0d1bd84ebf0U, 0xbcb13a953dbfff76U, 0x3e4ec4583d93b0d1U, 0x3d93b0d1bd13b0d1U,
  0xbe0c4e60bdb13a95U, 0x3bec4e1c3d4ec458U, 0x3eb4ebcd00000000U, 0x3d313a95bdcec458U,
  0xbc6c4e1cbe13b0d1U, 0xbcec4e1c3da275b3U, 0x3dcec4583cec4e1cU, 0xbe3fff763d4ec458U,
  0x3dbfff76be4ec458U, 0x3c6c4e1c3dfb12fdU, 0x3db13a95bc6c4e1cU, 0xbcb13a953e389d06U,
  0xbd4ec458bddd893aU, 0xbd313a953e4761e7U, 0x3e6c4e1cbd4ec458U, 0xbe29d8243c6c4e1cU,
  0xbdb13a95be13b0d1U, 0x3db13a95bd93b0d1U, 0x3e29d824bd93b0d1U, 0xbcec4e1cbd313a95U,
  0x3d4ec4583d13b0d1U, 0xbd4ec4583e04ebf0U, 0x3e73b08d3cec4e1cU, 0xbe9b1342be389d06U,
  0x3c6c4e1c3d6c4e1cU, 0xbd4ec4583bec4e1cU, 0x3e29d824bdcec458U, 0xbe8c4e603d93b0d1U,
  0xbda275b33da275b3U, 0x3d13b0d13cec4e1cU, 0x3e84ebf03d13b0d1U, 0xbe5626c9bda275b3U,
  0xbcec4e1cbe4761e7U, 0x3cec4e1c3e13b0d1U, 0x3ead895c3e13b0d1U, 0xbda275b33d84ebf0U,
  0x3da275b3bd4ec458U, 0xbd4ec458U, 0x3d84ebf0bc6c4e1cU, 0x3c6c4e1c3d13b0d1U,
  0x3d313a953c6c4e1cU, 0x3e13b0d13d4ec458U, 0x3dec4e1c3e0c4e60U, 0xbd6c4e1c00000000U,
  0xbd313a95bd93b0d1U, 0x3db13a95be29d824U, 0x3e5626c9bbec4e1cU, 0xbe3fff763db13a95U,
  0x3da275b33dbfff76U, 0x3db13a95be4ec458U, 0x3e0c4e60bdb13a95U, 0xbe5d893abbec4e1cU,
  0xbddd893a3e313a95U, 0x3dcec4583d6c4e1cU, 0x3e04ebf03db13a95U, 0x3d4ec458bdfb12fdU,
  0xbd6c4e1cU, 0x3cec4e1cbd6c4e1cU, 0x3d6c4e1cbc6c4e1cU, 0xbe64ebabbd4ec458U,
  0x3c6c4e1cbe29d824U, 0x3d13b0d13e04ebf0U, 0x3e5d893abbec4e1cU, 0xbe84ebf03d13b0d1U,
  0xbd6c4e1cbe29d824U, 0x3d313a953e1b1342U, 0x3d93b0d13d4ec458U, 0xbe84ebf03cb13a95U,
  0x3d84ebf03dbfff76U, 0x3ddd893a3e389d06U, 0x3ea9d82400000000U, 0xbcec4e1cbe2275b3U,
  0xbe5d893abe29d824U, 0xbbec4e1cbdfb12fdU, 0x3e4ec4583ddd893aU, 0xbe93b0d13d6c4e1cU,
  0xbe7b12fdbcb13a95U, 0xbdfb12fdbe889d28U, 0x3e3fff76bbec4e1cU, 0xbe84ebf0be1b1342U,
  0x3e7b12fdbdbfff76U, 0x3dbfff763dfb12fdU, 0xbe6c4e1c3e6c4e1cU, 0x3eb89d063ddd893aU,
  0x3e6c4e1cbdcec458U, 0x3e73b08d3e64ebabU, 0xbd93b0d13e04ebf0U, 0x3cec4e1c3e813ab7U,
  0x3d84ebf0bd93b0d1U, 0x3d93b0d13e4761e7U, 0xbddd893a3e29d824U, 0xbda275b33e6c4e1cU,
  0xbd4ec458bd84ebf0U, 0x3e64ebab3e84ebf0U, 0xbd84ebf0bdb13a95U, 0x3e313a953e04ebf0U,
  0x3e0c4e60bc6c4e1cU, 0x3dfb12fdbd93b0d1U, 0xbe97620a3dbfff76U, 0x3e4761e73e3fff76U,
  0x3dbfff7600000000U, 0x3e313a953e29d824U, 0xbe1b13423dec4e1cU, 0x3e5d893a3db13a95U,
  0x3d6c4e1cbd4ec458U, 0x3ea275b33db13a95U, 0xbe889d283e29d824U, 0x3dfb12fd3e1b1342U,
  0x3bec4e1cbe13b0d1U, 0x3e73b08d3dfb12fdU, 0xbe813ab73dfb12fdU, 0x3ee4ebab3e389d06U,
  0x3d313a95bdbfff76U, 0x3e3fff763d6c4e1cU, 0xbe889d283d6c4e1cU, 0x3ed626c93d4ec458U,
  0xbd6c4e1cbe73b08dU, 0x3e4ec4583db13a95U, 0xbe8fff993e5d893aU, 0x3e0c4e603dec4e1cU,
  0x3e93b0d1bd93b0d1U, 0x3e4761e73e13b0d1U, 0xbe9b1342bd84ebf0U, 0x3e13b0d13e64ebabU,
  0x3d4ec458be889d28U, 0x3e2275b33e4761e7U, 0xbd13b0d1bd313a95U, 0x3dbfff763d84ebf0U,
  0x3db13a95bc6c4e1cU, 0x3e73b08d3e4ec458U, 0xbe93b0d13e13b0d1U, 0x3e13b0d13e1b1342U,
  0x3e0c4e603d93b0d1U, 0x3e8fff993ddd893aU, 0xbe04ebf03e0c4e60U, 0x3e1b13423dfb12fdU,
  0x3cec4e1cbe73b08dU, 0x3e4761e73d13b0d1U, 0xbe04ebf03e0c4e60U, 0x3d6c4e1c3e84ebf0U,
  0x3da275b33cb13a95U, 0x3c6c4e1c3e3fff76U, 0xbe97620a3e3fff76U, 0x3e389d063d13b0d1U,
  0x3e8fff993bec4e1cU, 0x3d84ebf03e813ab7U, 0xbe29d8243e313a95U, 0x3e8fff993ddd893aU,
  0xbc6c4e1cbe813ab7U, 0x3e389d063dcec458U, 0xbe6c4e1cbcb13a95U, 0x3e813ab7bd313a95U,
  0x3e8c4e60be8fff99U, 0x3e64ebab3db13a95U, 0xbdec4e1c3d13b0d1U, 0x3e2275b33e6c4e1cU,
  0x3e6c4e1cbe813ab7U, 0x3dcec4583e64ebabU, 0xbe8c4e60bc6c4e1cU, 0x3e13b0d13bec4e1cU,
  0x3dec4e1cbcec4e1cU, 0xbcec4e1c3dfb12fdU, 0xbe389d06bd93b0d1U, 0x3e6c4e1c3e5d893aU,
  0x3e2275b33e0c4e60U, 0x3e5626c93e1b1342U, 0xbe4761e7bd13b0d1U, 0x3ed275913dfb12fdU,
  0x3eb13a9500000000U, 0x3f0e26fd3f1ec47bU, 0x3dbfff763dec4e1cU, 0xbe4ec4583e889d28U,
  0x3ea9d824bd13b0d1U, 0x3dec4e1c3f013ab7U, 0x3d13b0d13e04ebf0U, 0xbe7b12fd3eb89d06U,
  0x3e93b0d1bd4ec458U, 0x3e7b12fd3e7b12fdU, 0xbd313a953e2275b3U, 0xbdcec4583e5d893aU,
  0x3e93b0d13d313a95U, 0x3ebfff763e813ab7U, 0x3bec4e1c3dbfff76U, 0xbedd893a3e13b0d1U,
  0x3e1b1342bda275b3U, 0x3e5626c93da275b3U, 0x3dec4e1c3e4761e7U, 0xbe13b0d13d6c4e1cU,
  0x3e1b1342bbec4e1cU, 0x3e813ab73d4ec458U, 0x3dfb12fd3db13a95U, 0xbe64ebab3e9ec47bU,
  0x3eb4ebcd3bec4e1cU, 0x3ed9d8013e5d893aU, 0x3da275b33e13b0d1U, 0xbdbfff763e73b08dU,
  0x3e5d893abd6c4e1cU, 0x3e5d893a3dcec458U, 0xbcec4e1c3d6c4e1cU, 0xbe3fff763f031353U,
  0x3e6c4e1cbdcec458U, 0x3ebc4e3e3ef761c5U, 0x3d93b0d1bd313a95U, 0xbe813ab73e389d06U,
  0x3e64ebabbdbfff76U, 0x3ecb13203eb89d06U, 0x3cb13a953e7b12fdU, 0xbe64ebab3ef3b08dU,
  0x3e0c4e603cec4e1cU, 0x3ebfff763ebc4e3eU, 0x3d4ec458bd84ebf0U, 0xbc6c4e1c3ed626c9U,
  0x3ea9d8243da275b3U, 0x3efec4363eb13a95U, 0xbc6c4e1c00000000U, 0xbc6c4e1c3ecb1320U,
  0x3ecb1320bd313a95U, 0x3e4ec4583eb4ebcdU, 0x3cec4e1c3e0c4e60U, 0x3d93b0d13e4ec458U,
  0x3eb13a95bd6c4e1cU, 0x3e73b08d3ea275b3U, 0x3d84ebf03d13b0d1U, 0x3c6c4e1c3eb89d06U,
  0x3ea275b33d93b0d1U, 0x3e889d283eb89d06U, 0x3cec4e1c3ea275b3U, 0x3bec4e1c3cb13a95U,
  0x3e5d893a3d13b0d1U, 0x3e73b08d3ebfff76U, 0x3dfb12fd3cec4e1cU, 0xbd6c4e1c3e7b12fdU,
  0x3e97620abe4ec458U, 0x3ed275913ecec458U, 0x3dbfff76bcb13a95U, 0xbe0c4e603e1b1342U,
  0x3cec4e1cbdfb12fdU, 0x3e389d063e29d824U, 0xbc6c4e1c3e13b0d1U, 0x3d6c4e1c3e73b08dU,
  0xbd313a95bcec4e1cU, 0x3e5626c9bd313a95U, 0x3cec4e1c3d4ec458U, 0xbe0c4e603ee13a72U,
  0xbc6c4e1c3cb13a95U, 0x3eefff543e5626c9U, 0x3db13a953dbfff76U, 0xbe4ec4583e5626c9U,
  0x3e3fff7600000000U, 0x3f0fff993ed9d801U, 0x3d6c4e1c3dcec458U, 0xbd313a953f11d835U,
  0x3eb13a953bec4e1cU, 0x3f5275913eb13a95U, 0x3d13b0d13cec4e1cU, 0xbea9d8243ee4ebabU,
  0x3eec4e1c3dcec458U, 0x3e4ec4583eec4e1cU, 0x3d4ec4583ebc4e3eU, 0xbd84ebf03d84ebf0U,
  0x3e3fff76be2275b3U, 0x3ddd893a3ea626ebU, 0xbd4ec4583e73b08dU, 0xbe0c4e603d84ebf0U,
  0x3d84ebf03cec4e1cU, 0x3d6c4e1c3e389d06U, 0x3cb13a953e8fff99U, 0x3bec4e1c3bec4e1cU,
  0x3e7b12fdbc6c4e1cU, 0x3e1b13423e1b1342U, 0xbd84ebf03dcec458U, 0xbf04ebf03d6c4e1cU,
  0x3e313a953d84ebf0U, 0xbc6c4e1c3e64ebabU, 0xbd6c4e1c3cb13a95U, 0xbe6c4e1c3ddd893aU,
  0x3e4ec458be3fff76U, 0x3e13b0d13e4761e7U, 0x3e1b13423db13a95U, 0xbe93b0d13cb13a95U,
  0x3c6c4e1cbe64ebabU, 0x3e813ab7U, 0x3c6c4e1cbcb13a95U, 0xbe313a953e1b1342U,
  0x3e0c4e603cec4e1cU, 0x3ea275b33e9b1342U, 0x3e2275b33e04ebf0U, 0xbe5d893a3dec4e1cU,
  0x3e97620abe2275b3U, 0x3e13b0d13ea275b3U, 0x3e0c4e603e313a95U, 0xbe13b0d13e1b1342U,
  0x3e7b12fdbe4ec458U, 0x3e04ebf03ea275b3U, 0x3cec4e1cbcec4e1cU, 0xbdfb12fd3e313a95U,
  0x3e389d06be889d28U, 0x3ea626eb3e2275b3U, 0x3d13b0d1bd13b0d1U, 0xbe889d283ed626c9U,
  0x3dbfff763da275b3U, 0x3ea626eb3e6c4e1cU, 0x3d84ebf03db13a95U, 0xbcb13a953ddd893aU,
  0x3e6c4e1cbe64ebabU, 0x3d13b0d13e5626c9U, 0x3e4761e73e4ec458U, 0x3d84ebf03e9b1342U,
  0x3e8c4e60bd4ec458U, 0x3e4761e73ea275b3U, 0x3e313a953ddd893aU, 0xbe5626c93e13b0d1U,
  0x3e8fff993d6c4e1cU, 0x3bec4e1c3c6c4e1cU, 0x3d84ebf03e8c4e60U, 0x3d4ec458bdbfff76U,
  0x3e5626c9bd13b0d1U, 0xbd13b0d13cb13a95U, 0x3e313a953e0c4e60U, 0xbcec4e1cbc6c4e1cU,
  0x3cec4e1cbe4ec458U, 0x3ead895c3e64ebabU, 0x3bec4e1c3e389d06U, 0xbea9d8243e7b12fdU,
  0x3d4ec458bdec4e1cU, 0xbcb13a953e5626c9U, 0xbd4ec4583dec4e1cU, 0xbe4ec4583e3fff76U,
  0x3db13a95bdb13a95U, 0x3d93b0d1bd93b0d1U, 0xbcb13a95bdec4e1cU, 0xbe29d8243eb89d06U,
  0xbd84ebf0be0c4e60U, 0x3e9ec47b3bec4e1cU, 0x3e2275b3be29d824U, 0xbdcec4583e13b0d1U,
  0x3db13a95bcec4e1cU, 0x3e84ebf03e0c4e60U, 0x3dfb12fd3dcec458U, 0xbe64ebab3e889d28U,
  0x3e29d8243e04ebf0U, 0x3f29d8243ead895cU, 0x3d4ec4583e4761e7U, 0xbe6c4e1c3e8c4e60U,
  0x3e813ab7bd13b0d1U, 0x3cb13a953bec4e1cU, 0x3ddd893a3c6c4e1cU, 0xbe6c4e1cbdbfff76U,
  0x3e13b0d1bda275b3U, 0xbd93b0d13e889d28U, 0xbcec4e1cbc6c4e1cU, 0xbd13b0d100000000U,
  0x3ddd893a3cec4e1cU, 0xbdb13a953d84ebf0U, 0x3e2275b33e84ebf0U, 0xbda275b33bec4e1cU,
  0x3c6c4e1cbdbfff76U, 0x3dec4e1c3cb13a95U, 0x3e5626c93dcec458U, 0xbec761e7bdb13a95U,
  0xbcec4e1cbddd893aU, 0x3e4761e7bdb13a95U, 0xbbec4e1cbd6c4e1cU, 0xbe04ebf03cec4e1cU,
  0x3d84ebf0be7b12fdU, 0xbd13b0d1bbec4e1cU, 0x3da275b33e0c4e60U, 0xbe3fff763db13a95U,
  0x3e29d824bddd893aU, 0x3ddd893a3bec4e1cU, 0xbcec4e1cbcec4e1cU, 0xbe13b0d1bdbfff76U,
  0x3db13a95be1b1342U, 0x3e389d063e29d824U, 0x3e4ec4583dcec458U, 0xbe93b0d13cec4e1cU,
  0x3e4761e7bd13b0d1U, 0xbddd893a3d84ebf0U, 0x3bec4e1c3e2275b3U, 0xbebfff763e2275b3U,
  0x3e8fff99be84ebf0U, 0x3ddd893a3db13a95U, 0x3d93b0d1bdbfff76U, 0xbe8c4e603e1b1342U,
  0xbd84ebf0U, 0x3e0c4e60bcb13a95U, 0x3e3fff763da275b3U, 0xbe813ab73d313a95U,
  0x3bec4e1c00000000U, 0x3c6c4e1cbdcec458U, 0x3c6c4e1c3d4ec458U, 0xbe73b08d3dfb12fdU,
  0x3cb13a95bea9d824U, 0x3db13a95be313a95U, 0x3db13a953ddd893aU, 0xbe04ebf03d84ebf0U,
  0x3e4761e7be4761e7U, 0xbe04ebf0bd6c4e1cU, 0x3e2275b33d13b0d1U, 0xbe389d063e0c4e60U,
  0x3e29d824be4761e7U, 0x3d313a953d6c4e1cU, 0x3e3fff763e0c4e60U, 0xbe8fff993db13a95U,
  0x3ddd893abe13b0d1U, 0x3d4ec4583db13a95U, 0x3e73b08dbd4ec458U, 0xbd313a95bdb13a95U,
  0xbddd893abd6c4e1cU, 0x3d13b0d1bd6c4e1cU, 0x3d13b0d13dbfff76U, 0xbec761e73e2275b3U,
  0xbcec4e1cbcb13a95U, 0xbd4ec458bda275b3U, 0x3e0c4e603db13a95U, 0xbe73b08dbd313a95U,
  0x3e04ebf0be29d824U, 0x3d6c4e1cbbec4e1cU, 0x3e4ec4583d93b0d1U, 0xbea9d8243e2275b3U,
  0xbd4ec458bd6c4e1cU, 0xbd93b0d1U, 0x3e04ebf03d6c4e1cU, 0xbe889d283e313a95U,
  0x3dcec458be8c4e60U, 0x3cec4e1cbdfb12fdU, 0x3ddd893a3cb13a95U, 0xbf06c48c3e0c4e60U,
  0x3dcec458bd6c4e1cU, 0x3e8fff99bd6c4e1cU, 0xbcec4e1c3bec4e1cU, 0xbf013ab73e04ebf0U,
  0x3f13b0d1bc6c4e1cU, 0x3f1ec47b3efb12fdU, 0x3d84ebf03ee13a72U, 0xbe29d8243e5d893aU,
  0x3ec3b0af3dfb12fdU, 0x3e813ab73f2275b3U, 0x3db13a953e9b1342U, 0x3c6c4e1c3dfb12fdU,
  0x3e73b08d3bec4e1cU, 0x3e9ec47b3ed27591U, 0x3d6c4e1c3ead895cU, 0xbe1b13423e9b1342U,
  0x3eb13a95bd13b0d1U, 0x3e5626c93e4761e7U, 0xbcec4e1c3e2275b3U, 0xbe6c4e1c3d313a95U,
  0x3e889d2800000000U, 0x3da275b33e1b1342U, 0x3dfb12fd3dbfff76U, 0xbea9d824bbec4e1cU,
  0x3e84ebf03c6c4e1cU, 0x3e93b0d13eb13a95U, 0x3d13b0d13e04ebf0U, 0xbd313a953eb13a95U,
  0x3e2275b33d4ec458U, 0x3e84ebf03e64ebabU, 0x3da275b33e5d893aU, 0xbe1b13423ec761e7U,
  0x3e9b1342bdb13a95U, 0x3ea275b33ea9d824U, 0xbc6c4e1c3dbfff76U, 0x3cb13a953ee89ce3U,
  0x3ee13a723d6c4e1cU, 0x3f0e26fd3ead895cU, 0x3d13b0d13e5626c9U, 0xbcec4e1c3e5626c9U,
  0x3ea9d824bd4ec458U, 0x3ed626c93ecb1320U, 0x3d84ebf03e4ec458U, 0x3cec4e1c3f06c48cU,
  0x3e93b0d1bcb13a95U, 0x3f04ebf03ee13a72U, 0xbcb13a95bbec4e1cU, 0xbd84ebf03f1b1342U,
  0x3e2275b33dec4e1cU, 0x3f0a75c43f031353U, 0x3bec4e1c3bec4e1cU, 0x3c6c4e1c3e8fff99U,
  0x3eefff54be2275b3U, 0x3e73b08d3e7b12fdU, 0xbcb13a953dcec458U, 0x3e29d8243f06c48cU,
  0x3edd893abdfb12fdU, 0x3e313a953edd893aU, 0xbcec4e1c3e84ebf0U, 0xbda275b33eb4ebcdU,
  0x3e73b08dbe389d06U, 0x3e97620a3f0fff99U, 0x3cb13a953e1b1342U, 0xbe13b0d13e0c4e60U,
  0x3e9b13423d4ec458U, 0x3e8fff993e84ebf0U, 0x3e5626c9U, 0x3d93b0d13dfb12fdU,
  0x3dec4e1cbe13b0d1U, 0x3e97620a3ed9d801U, 0xbc6c4e1c3e1b1342U, 0xbd313a953dec4e1cU,
  0x3e73b08dbd313a95U, 0x3e8c4e603eb4ebcdU, 0x3e0c4e603e64ebabU, 0xbcb13a953ead895cU,
  0x3e04ebf0be1b1342U, 0x3efb12fd3d93b0d1U, 0x3e313a95bd13b0d1U, 0xbdcec4583ee4ebabU,
  0x3e5d893a3cb13a95U, 0x3ee4ebab3e4761e7U, 0x3db13a95bd13b0d1U, 0x3bec4e1c3e97620aU,
  0x3ea275b33c6c4e1cU, 0x3f04ebf03ec761e7U, 0x3d6c4e1c3e04ebf0U, 0xbe6c4e1c3ec761e7U,
  0x3ec3b0af3d93b0d1U, 0x3f5bb09e3ebfff76U, 0x3e13b0d13d93b0d1U, 0xbd4ec4583f1cebdeU,
  0x3ed27591bc6c4e1cU, 0x3e2275b33f17620aU, 0x3dec4e1c3ea626ebU, 0xbd13b0d13dfb12fdU,
  0x3eefff543d13b0d1U, 0x3da275b33f0e26fdU, 0x3e5d893aU, 0x3e0c4e603dcec458U,
  0x3edd893a3bec4e1cU, 0x3e13b0d13ee13a72U, 0xbcb13a953da275b3U, 0xbdfb12fd3d313a95U,
  0x3e8c4e60bcb13a95U, 0x3e1b13423e6c4e1cU, 0x3da275b33e13b0d1U, 0xbeb13a95be313a95U,
  0x3d13b0d1bdbfff76U, 0x3e4ec4583ea9d824U, 0xbc6c4e1c00000000U, 0xbe13b0d13e313a95U,
  0x3da275b33c6c4e1cU, 0x3e73b08d3e1b1342U, 0x3d93b0d1U, 0xbdbfff763e889d28U,
  0x3e389d06bddd893aU, 0x3e889d283ebfff76U, 0x3e13b0d13dfb12fdU, 0x3e04ebf03ea275b3U,
  0x3ea9d8243d93b0d1U, 0x3ea626eb3e4ec458U, 0x3c6c4e1c3d313a95U, 0xbd6c4e1c3ed626c9U,
  0x3dfb12fd3d84ebf0U, 0x3ed9d8013ebc4e3eU, 0xbcb13a953da275b3U, 0x3dec4e1c3eb89d06U,
  0x3ebfff763d93b0d1U, 0x3dec4e1c3e4761e7U, 0x3e29d8243bec4e1cU, 0x3d93b0d13e84ebf0U,
  0x3e84ebf0bdbfff76U, 0x3eefff543e389d06U, 0x3dfb12fd3e29d824U, 0x3ddd893a3edd893aU,
  0x3dcec4583dec4e1cU, 0x3e4ec4583e2275b3U, 0x3e1b13423e64ebabU, 0xbdbfff763dfb12fdU,
  0x3ed27591bcec4e1cU, 0x3ebc4e3e3e9b1342U, 0x3d4ec4583e64ebabU, 0x3e1b13423e73b08dU,
  0x3ebc4e3e3bec4e1cU, 0x3db13a953eb13a95U, 0x3d313a953ddd893aU, 0x3e813ab73e84ebf0U,
  0x3e6c4e1c3d6c4e1cU, 0x3e3fff763e97620aU, 0xbcec4e1c3bec4e1cU, 0x3cb13a95bc6c4e1cU,
  0x3ea275b33cec4e1cU, 0xbd13b0d13ec3b0afU, 0x3d6c4e1c3d313a95U, 0x3ddd893a3e3fff76U,
  0x3e9b13423cec4e1cU, 0x3e9b13423ec3b0afU, 0xbcb13a953e313a95U, 0x3bec4e1c3d313a95U,
  0x3e2275b33dcec458U, 0x3db13a953e73b08dU, 0x3cec4e1c3dfb12fdU, 0x3d313a953d313a95U,
  0x3d313a953cec4e1cU, 0x3e64ebab3e64ebabU, 0x3cb13a953d4ec458U, 0xbe04ebf03eb13a95U,
  0x3e5d893abda275b3U, 0x3ea9d8243dfb12fdU, 0x3d6c4e1c3e2275b3U, 0x3e6c4e1cU,
  0x3ed27591bdcec458U, 0x3f089d283ecec458U, 0x3dcec4583e29d824U, 0x3dcec4583ec3b0afU,
  0x3ed2759100000000U, 0x3f4761e73ee89ce3U, 0x3e04ebf03e6c4e1cU, 0xbd84ebf03f15896dU,
  0x3e0c4e60be3fff76U, 0x3e64ebab3e7b12fdU, 0xbcec4e1c3d313a95U, 0x3e84ebf03cb13a95U,
  0x3e813ab73dfb12fdU, 0x3d313a953cb13a95U, 0xbd84ebf03e04ebf0U, 0x3d313a953e1b1342U,
  0x3e29d8243cec4e1cU, 0x3e64ebab3dec4e1cU, 0xbe6c4e1c3d4ec458U, 0x3dcec4583e1b1342U,
  0xbd4ec4583c6c4e1cU, 0xbcb13a953e7b12fdU, 0xbe889d283e1b1342U, 0x3e04ebf03d93b0d1U,
  0x3e1b1342be1b1342U, 0x3d313a953ddd893aU, 0xbe9b13423da275b3U, 0x3e2275b33e6c4e1cU,
  0xbcec4e1c3c6c4e1cU, 0xbbec4e1c00000000U, 0xbcec4e1c00000000U, 0x3e9ec47b3e4ec458U,
  0x3d4ec458be313a95U, 0x3e73b08d3e73b08dU, 0xbe889d283e2275b3U, 0x3e889d283e4761e7U,
  0x3dec4e1cbd93b0d1U, 0x3e84ebf03e3fff76U, 0xbd313a953c6c4e1cU, 0x3e313a953e889d28U,
  0x3e29d824bbec4e1cU, 0x3dcec4583da275b3U, 0xbe4ec458bd13b0d1U, 0x3e9b1342bbec4e1cU,
  0x3e389d063cec4e1cU, 0x3dbfff763e7b12fdU, 0xbe5d893a3d84ebf0U, 0x3e9ec47b3d93b0d1U,
  0x3e29d824bbec4e1cU, 0x3e04ebf03e64ebabU, 0xbe0c4e603ddd893aU, 0x3e9b13423d13b0d1U,
  0x3e64ebabbe2275b3U, 0x3da275b33c6c4e1cU, 0xbe389d06bcb13a95U, 0xbda275b3bcb13a95U,
  0x3cec4e1c3da275b3U, 0xbd13b0d1bbec4e1cU, 0xbdb13a953dec4e1cU, 0x3e29d8243e1b1342U,
  0x3e4ec458bd313a95U, 0x3e5626c93dcec458U, 0xbddd893a3e29d824U, 0xbbec4e1c3e6c4e1cU,
  0xbcb13a95bcec4e1cU, 0x3e5d893a3d84ebf0U, 0xbe4ec4583cec4e1cU, 0x3d13b0d13d313a95U,
  0xbd6c4e1cU, 0x3e3fff76bcb13a95U, 0xbd93b0d13e2275b3U, 0x3e5d893a3e13b0d1U,
  0x3d13b0d1bda275b3U, 0x3e8c4e603d13b0d1U, 0xbc6c4e1cbc6c4e1cU, 0x3ec761e73d6c4e1cU,
  0x3e13b0d1bda275b3U, 0x3e0c4e603d6c4e1cU, 0xbd84ebf03e6c4e1cU, 0x3ea9d8243ddd893aU,
  0x3e7b12fdbd93b0d1U, 0xbbec4e1cbcb13a95U, 0xbd13b0d1bd84ebf0U, 0x3e64ebabbcec4e1cU,
  0xbcb13a95bd13b0d1U, 0xbda275b33d4ec458U, 0xbe889d28bda275b3U, 0x3e93b0d13dec4e1cU,
  0x3e5626c93dfb12fdU, 0x3e389d063e4761e7U, 0xbe13b0d13d4ec458U, 0x3e3fff763d313a95U,
  0x3d4ec458bdfb12fdU, 0x3d4ec458bbec4e1cU, 0xbe73b08d3cec4e1cU, 0x3e73b08d3d13b0d1U,
  0x3d13b0d1bd84ebf0U, 0x3dec4e1cbdbfff76U, 0x3e813ab73d13b0d1U, 0xbe8fff993d4ec458U,
  0x3d6c4e1c3d13b0d1U, 0x3d13b0d1bcec4e1cU, 0x3d313a953d4ec458U, 0xbe3fff76bd6c4e1cU,
  0xbbec4e1cbe04ebf0U, 0x3cb13a953dfb12fdU, 0xbc6c4e1c3cec4e1cU, 0x3cb13a95bdbfff76U,
  0xbd13b0d1bdcec458U, 0xbddd893a3dfb12fdU, 0xbcb13a953da275b3U, 0xbe84ebf0bd84ebf0U,
  0x3e3fff76be5626c9U, 0x3d4ec4583bec4e1cU, 0x3e0c4e603e29d824U, 0xbe1b1342bd84ebf0U,
  0x3dec4e1cbe7b12fdU, 0xbddd893aU, 0x3e4761e73dfb12fdU, 0xbdcec458bbec4e1cU,
  0x3e13b0d1be6c4e1cU, 0x3dbfff76bdec4e1cU, 0x3d6c4e1c3e04ebf0U, 0xbe9b13423dfb12fdU,
  0x3e04ebf0bbec4e1cU, 0x3e2275b3bdb13a95U, 0xbbec4e1c3ddd893aU, 0xbe6c4e1c3d313a95U,
  0x3cb13a95bddd893aU, 0xbd93b0d13d93b0d1U, 0x3c6c4e1cbdec4e1cU, 0xbead895cbbec4e1cU,
  0x3dcec458bdec4e1cU, 0x3dec4e1cbdfb12fdU, 0x3e73b08d3c6c4e1cU, 0xbe73b08dbbec4e1cU,
  0x3e29d824be7b12fdU, 0xbcb13a953bec4e1cU, 0x3d6c4e1c3c6c4e1cU, 0xbda275b33cb13a95U,
  0x3e4ec458bd13b0d1U, 0x3ddd893abd13b0d1U, 0x3e6c4e1c3d313a95U, 0xbe13b0d1bda275b3U,
  0x3dcec458be5d893aU, 0xbd4ec458bd313a95U, 0x3e7b12fd3db13a95U, 0xbe0c4e60bd84ebf0U,
  0x3e389d06bd6c4e1cU, 0x3d84ebf03d84ebf0U, 0x3d93b0d13cb13a95U, 0xbd84ebf0bcec4e1cU,
  0xbd313a95bd84ebf0U, 0x3d313a953bec4e1cU, 0x3e6c4e1cbcec4e1cU, 0xbd313a95bdec4e1cU,
  0x3e3fff76bcec4e1cU, 0x3cec4e1cbe0c4e60U, 0x3e29d824bd84ebf0U, 0xbd313a953cb13a95U,
  0xbcb13a95be0c4e60U, 0xbddd893a3e0c4e60U, 0x3e5626c9bddd893aU, 0xbdcec4583da275b3U,
  0xbd4ec458bd4ec458U, 0x3d4ec4583dec4e1cU, 0xbbec4e1c3dcec458U, 0xbdcec458bdbfff76U,
  0x3e04ebf0be8c4e60U, 0x3cec4e1c3c6c4e1cU, 0x3e313a95U, 0xbe813ab73e0c4e60U,
  0x3d6c4e1cbe813ab7U, 0x3e0c4e603d4ec458U, 0x3e13b0d1bcb13a95U, 0xbdbfff76bd4ec458U,
  0xbdb13a95bdfb12fdU, 0x3d13b0d13dbfff76U, 0x3d84ebf03dbfff76U, 0xbed9d8013d4ec458U,
  0x3da275b33d13b0d1U, 0x3cb13a95be313a95U, 0x3dfb12fd3cec4e1cU, 0xbefec436bd4ec458U,
  0xbe9ec47b3e313a95U, 0xbebfff76becb1320U, 0x3e0c4e60be3fff76U, 0x3dfb12fdbe813ab7U,
  0xbee13a7200000000U, 0xbdbfff76bedd893aU, 0x3c6c4e1cbda275b3U, 0x3e9b1342be5626c9U,
  0xbe3fff763e64ebabU, 0xbe6c4e1cbee13a72U, 0xbc6c4e1cbe389d06U, 0x3e93b0d1be9ec47bU,
  0xbe813ab73e3fff76U, 0xbe13b0d1be9ec47bU, 0x3dec4e1cbe313a95U, 0x3ea9d824bdbfff76U,
  0xbe389d063dec4e1cU, 0xbe4ec458be7b12fdU, 0x3d313a953d313a95U, 0x3e5626c93d6c4e1cU,
  0xbddd893a3dec4e1cU, 0xbe9b1342bdcec458U, 0xbd84ebf0be0c4e60U, 0x3e9ec47bbe0c4e60U,
  0xbe889d28bc6c4e1cU, 0xbe1b1342be9ec47bU, 0xbbec4e1cbdcec458U, 0x3dfb12fdbe4ec458U,
  0xbe73b08d3dcec458U, 0xbed626c9bdec4e1cU, 0xbd313a95bd313a95U, 0x3dfb12fdbe5d893aU,
  0xbdec4e1c3d4ec458U, 0xbe93b0d1bead895cU, 0xbc6c4e1cbe3fff76U, 0x3e313a95be5626c9U,
  0xbe97620a3e313a95U, 0xbe6c4e1cbe4ec458U, 0x3e0c4e60be5626c9U, 0x3e04ebf0bea9d824U,
  0xbeb13a953ea626ebU, 0xbf04ebf0be73b08dU, 0x3e13b0d1be1b1342U, 0x3e5d893abead895cU,
  0xbeb13a953e29d824U, 0xbe97620abefec436U, 0x3d4ec458be2275b3U, 0x3cb13a95bebc4e3eU,
  0xbec3b0af3e813ab7U, 0xbea9d824be8fff99U, 0x3ddd893abdcec458U, 0xbda275b3be93b0d1U,
  0xbe6c4e1c3d6c4e1cU, 0xbe889d28be889d28U, 0xbcb13a95bdec4e1cU, 0xbd84ebf0bea626ebU,
  0xbe7b12fd3d84ebf0U, 0xbd313a95bee89ce3U, 0xbc6c4e1cbdfb12fdU, 0x3dec4e1cbe889d28U,
  0xbe84ebf03c6c4e1cU, 0xbcec4e1cbe0c4e60U, 0xbd313a95bd4ec458U, 0x3db13a95bead895cU,
  0xbea275b33d6c4e1cU, 0xbe6c4e1cbe813ab7U, 0xbcec4e1c3d84ebf0U, 0x3e7b12fdbebc4e3eU,
  0x3bec4e1c3dbfff76U, 0xbe313a95bebc4e3eU, 0xbda275b3bdbfff76U, 0xbc6c4e1cbe9b1342U,
  0xbbec4e1c3e389d06U, 0xbf031353be0c4e60U, 0x3e1b1342bd6c4e1cU, 0x3ddd893abf031353U,
  0xbe6c4e1c3ddd893aU, 0xbdec4e1cbe13b0d1U, 0x3bec4e1cbcec4e1cU, 0xbdb13a95be5d893aU,
  0xbe6c4e1c3cb13a95U, 0xbec761e7be0c4e60U, 0x3d4ec4583d6c4e1cU, 0x3d84ebf0bed626c9U,
  0x3d84ebf03dbfff76U, 0xbf1b1342bed626c9U, 0xbd6c4e1cbdbfff76U, 0x3e13b0d1befb12fdU,
  0x3e2275b33cb13a95U, 0xbcec4e1cbddd893aU, 0x3dec4e1cbcec4e1cU, 0xbe313a95bdec4e1cU,
  0x3ddd893abd13b0d1U, 0x3bec4e1c3da275b3U, 0x3e13b0d1bc6c4e1cU, 0xbd6c4e1c3dec4e1cU,
  0x3e1b1342be64ebabU, 0x3cb13a953e04ebf0U, 0x3e04ebf03e13b0d1U, 0xbddd893a3dbfff76U,
  0xbe3fff76U, 0xbbec4e1c3ddd893aU, 0x3e97620a3bec4e1cU, 0xbe8fff99bdbfff76U,
  0x3d13b0d1be04ebf0U, 0x3d6c4e1c3dbfff76U, 0x3e73b08d3dec4e1cU, 0xbd93b0d1bcec4e1cU,
  0x3cec4e1cbda275b3U, 0x3d93b0d1bd4ec458U, 0x3e6c4e1c00000000U, 0xbe3fff76bcec4e1cU,
  0x3cec4e1c3bec4e1cU, 0xbda275b3be04ebf0U, 0x3e9b13423dfb12fdU, 0xbe64ebab3cec4e1cU,
  0xbd13b0d1bd93b0d1U, 0xbdcec458bdfb12fdU, 0x3cec4e1c3d93b0d1U, 0xbe13b0d1bd6c4e1cU,
  0xbdfb12fdbd84ebf0U, 0xbe04ebf03dbfff76U, 0x3e1b13423db13a95U, 0xbe889d28bd4ec458U,
  0x3e2275b3be0c4e60U, 0x3dcec458bdec4e1cU, 0x3da275b33dcec458U, 0xbe04ebf03bec4e1cU,
  0x3dcec458be04ebf0U, 0x3cb13a953da275b3U, 0x3da275b33d93b0d1U, 0xbe5626c93e0c4e60U,
  0x3e1b1342be389d06U, 0xbdec4e1cbd13b0d1U, 0x3ddd893abddd893aU, 0xbbec4e1cbcb13a95U,
  0x3bec4e1cbe7b12fdU, 0xbcb13a95be04ebf0U, 0x3e8c4e603cb13a95U, 0xbe313a953dbfff76U,
  0x3e0c4e60bcb13a95U, 0x3dbfff763d313a95U, 0x3d13b0d1bbec4e1cU, 0x3cec4e1cbdcec458U,
  0xbda275b300000000U, 0xbcb13a953d6c4e1cU, 0x3d313a953db13a95U, 0xbdbfff763d6c4e1cU,
  0x3cb13a953cb13a95U, 0xbdcec4583e13b0d1U, 0x3cec4e1c3cec4e1cU, 0xbdbfff763da275b3U,
  0x3d4ec458be7b12fdU, 0xbe0c4e603db13a95U, 0x3cb13a953c6c4e1cU, 0xbe04ebf0bdbfff76U,
  0x3d6c4e1c3cec4e1cU, 0x3ddd893abdbfff76U, 0x3db13a953d4ec458U, 0x3e13b0d1U,
  0xbe5d893aU, 0xbbec4e1cbd84ebf0U, 0x3d4ec4583da275b3U, 0xbe389d06bdb13a95U,
  0xbbec4e1cbe389d06U, 0x3d13b0d100000000U, 0x3e1b13423e0c4e60U, 0xbe4761e7bcec4e1cU,
  0x3d6c4e1c00000000U, 0xbd84ebf03dbfff76U, 0x3dcec4583e13b0d1U, 0xbe5626c93e13b0d1U,
  0xbe73b08d3d6c4e1cU, 0x3d84ebf0bd313a95U, 0x3e6c4e1cbdbfff76U, 0xbe6c4e1cbd6c4e1cU,
  0xbeb13a95be2275b3U, 0xbec761e7bf06c48cU, 0x3e29d824beec4e1cU, 0x3e7b12fdbeb13a95U,
  0xbe1b13423d4ec458U, 0x3e0c4e60bf0e26fdU, 0x3c6c4e1cbd84ebf0U, 0x3e29d824be813ab7U,
  0xbe8c4e60bc6c4e1cU, 0xbd6c4e1cbe9b1342U, 0xbc6c4e1cbdbfff76U, 0xbcb13a95bdcec458U,
  0xbdfb12fd3e64ebabU, 0xbe313a95be5d893aU, 0xbddd893abe389d06U, 0x3e84ebf03e4ec458U,
  0xbd93b0d1bdfb12fdU, 0xbe389d06bd84ebf0U, 0x3d84ebf03bec4e1cU, 0x3e29d8243da275b3U,
  0xbddd893a3e04ebf0U, 0xbe6c4e1cbe13b0d1U, 0xbe1b1342be04ebf0U, 0x3e2275b3bea626ebU,
  0xbdcec4583e73b08dU, 0xbe04ebf0be389d06U, 0xbbec4e1cbe1b1342U, 0xbbec4e1cbe4761e7U,
  0xbea9d824bdec4e1cU, 0xbe4ec458bed9d801U, 0xbc6c4e1cbe8fff99U, 0xbe13b0d1bebc4e3eU,
  0xbd313a953ddd893aU, 0xbe5626c9beefff54U, 0xbcb13a953dec4e1cU, 0xbc6c4e1cbe6c4e1cU,
  0xbe4ec4583cec4e1cU, 0xbed9d801be93b0d1U, 0xbcb13a95U, 0x3dbfff76bed626c9U,
  0xbe313a95bdec4e1cU, 0xbed626c9beb13a95U, 0x3d13b0d1bbec4e1cU, 0xbd4ec458beb4ebcdU,
  0xbdec4e1cbddd893aU, 0xbe5d893abe6c4e1cU, 0x3e0c4e60bead895cU, 0x3e04ebf0be3fff76U,
  0xbe4761e73db13a95U, 0xbe29d824bea9d824U, 0xbda275b3bea275b3U, 0xbbec4e1cbe13b0d1U,
  0xbe0c4e60bcb13a95U, 0x3dcec458bf031353U, 0x3c6c4e1cbdbfff76U, 0xbcb13a95be8fff99U,
  0xbe1b13423e1b1342U, 0x3cec4e1cbebfff76U, 0xbdcec458bdec4e1cU, 0xbd313a953dcec458U,
  0x3d313a953dbfff76U, 0xbd13b0d1bea626ebU, 0x3d313a95bdb13a95U, 0xbddd893abbec4e1cU,
  0xbd4ec4583d13b0d1U, 0xbe389d06becec458U, 0x3e4761e7bd93b0d1U, 0xbbec4e1cbec3b0afU,
  0xbc6c4e1c3db13a95U, 0xbf1ec47bbed9d801U, 0x3da275b3be9ec47bU, 0xbdfb12fdbea626ebU,
  0xbe3fff763d84ebf0U, 0xbee4ebabbebfff76U, 0x3c6c4e1cbd313a95U, 0xbd84ebf0bf193aa6U,
  0x3c6c4e1c3cb13a95U, 0xbe389d06bdbfff76U, 0xbbec4e1cbcb13a95U, 0xbe13b0d1be9ec47bU,
  0xbdfb12fd3d93b0d1U, 0xbedd893abead895cU, 0x3da275b3bd6c4e1cU, 0xbdb13a95bef761c5U,
  0x3d4ec4583cb13a95U, 0xbf1ec47bbe8c4e60U, 0x3e29d824bdbfff76U, 0x3e1b1342bea275b3U,
  0x3e3fff76bd313a95U, 0x3db13a953d313a95U, 0xbcb13a953e4ec458U, 0x3e889d283e5626c9U,
  0x3db13a95bdbfff76U, 0x3e04ebf03e5626c9U, 0xbe5d893a3ddd893aU, 0x3e84ebf03d6c4e1cU,
  0x3d13b0d1be389d06U, 0x3e3fff763d13b0d1U, 0xbe5626c9bcb13a95U, 0x3cec4e1c3e2275b3U,
  0xbd4ec4583d313a95U, 0x3dcec4583d13b0d1U, 0xbe313a95bdfb12fdU, 0x3e389d063e13b0d1U,
  0x3ddd893abddd893aU, 0xbd13b0d13e04ebf0U, 0xbdbfff763cb13a95U, 0x3e5626c9bd6c4e1cU,
  0x3e3fff76be04ebf0U, 0x3bec4e1cbd6c4e1cU, 0xbd6c4e1c3e6c4e1cU, 0x3e5d893a3e1b1342U,
  0x3e0c4e60bd13b0d1U, 0x3e7b12fd3bec4e1cU, 0xbd13b0d13d4ec458U, 0x3e8c4e603c6c4e1cU,
  0x3cec4e1cbe0c4e60U, 0x3e5d893a3dfb12fdU, 0x3d313a953bec4e1cU, 0x3e64ebab3dec4e1cU,
  0x3e29d824bd84ebf0U, 0x3e813ab7bd6c4e1cU, 0xbdfb12fd3dbfff76U, 0x3e9b13423e313a95U,
  0x3e04ebf0bc6c4e1cU, 0x3bec4e1c3dbfff76U, 0xbd84ebf0bcb13a95U, 0x3dec4e1c3d4ec458U,
  0x3e1b1342bdcec458U, 0x3e3fff763dec4e1cU, 0xbe0c4e60bdb13a95U, 0x3e1b13423cec4e1cU,
  0x3dfb12fd3db13a95U, 0x3e813ab73ddd893aU, 0xbd93b0d13ddd893aU, 0xbbec4e1c3e04ebf0U,
  0x3e4761e7be2275b3U, 0xbdec4e1c3da275b3U, 0xbe0c4e603bec4e1cU, 0x3e889d283e64ebabU,
  0x3d313a953bec4e1cU, 0xbc6c4e1c3db13a95U, 0xbc6c4e1cbd93b0d1U, 0x3e4ec4583dcec458U,
  0x3dbfff76U, 0x3e2275b33e6c4e1cU, 0xbe5626c9bd4ec458U, 0x3d84ebf0bda275b3U,
  0xbda275b33cec4e1cU, 0x3d13b0d13bec4e1cU, 0xbe97620a3d313a95U, 0x3dbfff763dfb12fdU,
  0x3bec4e1c3da275b3U, 0x3d313a953e4ec458U, 0xbe5d893a3e1b1342U, 0x3e13b0d13da275b3U,
  0x3d13b0d1bbec4e1cU, 0x3d6c4e1c3bec4e1cU, 0xbe3fff763d313a95U, 0x3e64ebab3e04ebf0U,
  0xbc6c4e1cbcb13a95U, 0x3ddd893a3dbfff76U, 0xbc6c4e1c3d313a95U, 0x3ebfff763c6c4e1cU,
  0x3e0c4e60be13b0d1U, 0x3e29d8243e13b0d1U, 0xbc6c4e1cbbec4e1cU, 0x3e7b12fd3dec4e1cU,
  0xbd6c4e1cbd6c4e1cU, 0x3e2275b33e2275b3U, 0xbe813ab7be04ebf0U, 0x3ebfff763d313a95U,
  0x3e0c4e603bec4e1cU, 0x3e5626c93dfb12fdU, 0x3d93b0d13d93b0d1U, 0x3f0313533cb13a95U,
  0x3eb13a95bcec4e1cU, 0xbcb13a953ebc4e3eU, 0x3d313a953e6c4e1cU, 0x3e4761e73e73b08dU,
  0x3e97620a3e64ebabU, 0x3dec4e1c3e84ebf0U, 0x3d93b0d13e5626c9U, 0x3ddd893a3cb13a95U,
  0x3d84ebf03e813ab7U, 0xbcb13a953cb13a95U, 0xbd6c4e1c3e2275b3U, 0xbc6c4e1c3e4ec458U,
  0x3e2275b3bdcec458U, 0x3c6c4e1c3e64ebabU, 0x3d93b0d13cb13a95U, 0x3dec4e1c00000000U,
  0x3d84ebf03e84ebf0U, 0xbdb13a953e13b0d1U, 0x3ddd893aU, 0x3e04ebf03d13b0d1U,
  0x3e1b13423da275b3U, 0xbbec4e1c3e4ec458U, 0xbcb13a953e29d824U, 0x3e7b12fdbdb13a95U,
  0x3d93b0d1bd6c4e1cU, 0x3e389d063e04ebf0U, 0x3bec4e1c3e6c4e1cU, 0x3dcec4583e4ec458U,
  0x3da275b33e5626c9U, 0x3d4ec4583cec4e1cU, 0x3cb13a95bd13b0d1U, 0x3e313a953e9ec47bU,
  0xbc6c4e1c3e0c4e60U, 0x3e29d8243e1b1342U, 0x3db13a953e04ebf0U, 0x3d4ec4583ddd893aU,
  0x3e5d893a3bec4e1cU, 0xbd313a953e6c4e1cU, 0xbcb13a95bd4ec458U, 0x3e1b1342bcec4e1cU,
  0x3ddd893a3db13a95U, 0x3dec4e1c3dfb12fdU, 0x3db13a953dbfff76U, 0x3e29d8243eb13a95U,
  0x3e73b08dbc6c4e1cU, 0x3e97620a3e64ebabU, 0x3d84ebf03e73b08dU, 0xbcb13a953dfb12fdU,
  0x3db13a953d13b0d1U, 0xbd13b0d13e73b08dU, 0x3ddd893a3e7b12fdU, 0x3d4ec4583d313a95U,
  0x3e13b0d1bcb13a95U, 0x3da275b33e313a95U, 0x3c6c4e1c3dec4e1cU, 0x3e9ec47b3e29d824U,
  0x3e73b08d3d313a95U, 0x3ddd893a3da275b3U, 0xbd13b0d13da275b3U, 0x3dcec4583dbfff76U,
  0xbd4ec4583db13a95U, 0xbda275b33cb13a95U, 0x3dbfff76bd6c4e1cU, 0x3d6c4e1c3cb13a95U,
  0x3da275b33e4ec458U, 0x3e389d063e4761e7U, 0x3bec4e1cbcb13a95U, 0x3e8fff993e4ec458U,
  0x3d84ebf0bd13b0d1U, 0xbd84ebf03e4761e7U, 0x3d4ec4583e1b1342U, 0x3e6c4e1c3dbfff76U,
  0xbdb13a95bd4ec458U, 0xbdb13a953db13a95U, 0x3dcec458bd4ec458U, 0x3dcec4583e73b08dU,
  0x3e3fff763cec4e1cU, 0x3cec4e1c3d13b0d1U, 0x3e0c4e60bdcec458U, 0x3cec4e1c3e8c4e60U,
  0x3d13b0d1bd93b0d1U, 0x3e1b13423e29d824U, 0x3dcec4583d313a95U, 0x3e64ebab3eb4ebcdU,
  0x3e3fff763e389d06U, 0x3ebfff763ed27591U, 0xbbec4e1c3e9ec47bU, 0x3da275b33e889d28U,
  0xbe4761e7bdcec458U, 0xbda275b3beb4ebcdU, 0x3cb13a953d313a95U, 0x3e04ebf03bec4e1cU,
  0xbe389d063e04ebf0U, 0xbd313a95be3fff76U, 0x3e73b08d3d84ebf0U, 0xbd13b0d13dbfff76U,
  0xbd13b0d13dbfff76U, 0x3cec4e1cbe29d824U, 0x3da275b33e1b1342U, 0x3d313a953bec4e1cU,
  0x3cec4e1c3c6c4e1cU, 0x3e04ebf0bd93b0d1U, 0x3e9b1342bd93b0d1U, 0x3bec4e1c3e6c4e1cU,
  0xbda275b3bd6c4e1cU, 0x3e4761e73d6c4e1cU, 0x3e3fff763d84ebf0U, 0xbd84ebf03e29d824U,
  0xbd13b0d1bdfb12fdU, 0xbcb13a95bcb13a95U, 0x3dbfff763cb13a95U, 0x3d4ec4583cec4e1cU,
  0xbdcec458bd84ebf0U, 0x3d93b0d13dec4e1cU, 0x3e64ebab3ddd893aU, 0xbdb13a95be0c4e60U,
  0xbcb13a95bd4ec458U, 0xbcb13a95be1b1342U, 0x3e29d824bbec4e1cU, 0xbe29d8243bec4e1cU,
  0xbdbfff763e13b0d1U, 0xbd313a95bda275b3U, 0x3e313a953d6c4e1cU, 0x3e13b0d13dcec458U,
  0x3dbfff763cec4e1cU, 0xbd6c4e1cbd313a95U, 0x3dfb12fd3d313a95U, 0xbda275b33cb13a95U,
  0x3d313a953dec4e1cU, 0xbddd893abdcec458U, 0x3e8c4e603d93b0d1U, 0xbdfb12fdU,
  0xbdcec458bdfb12fdU, 0x3ddd893abd13b0d1U, 0x3e8fff993cec4e1cU, 0x3cb13a953d313a95U,
  0xbe4ec4583e4ec458U, 0xbd84ebf0be4ec458U, 0x3cb13a95bc6c4e1cU, 0xbe13b0d13bec4e1cU,
  0xbe0c4e60bc6c4e1cU, 0x3cb13a95bbec4e1cU, 0x3e5d893abd4ec458U, 0xbdfb12fd3ddd893aU,
  0xbe5626c93c6c4e1cU, 0x3d313a95bd4ec458U, 0x3ea275b33d93b0d1U, 0xbdbfff763dbfff76U,
  0xbdcec45800000000U, 0x3dcec458bda275b3U, 0x3dfb12fd3dcec458U, 0x3db13a953d4ec458U,
  0x3da275b3bbec4e1cU, 0xbcb13a95be2275b3U, 0x3dbfff763d313a95U, 0xbda275b3bdec4e1cU,
  0x3e13b0d1bddd893aU, 0xbda275b33e313a95U, 0x3e64ebab3d13b0d1U, 0x3c6c4e1c3d313a95U,
  0xbbec4e1cbcb13a95U, 0x3dcec458U, 0x3e7b12fd3e5626c9U, 0x3dbfff76bd84ebf0U,
  0x3cec4e1c3e13b0d1U, 0xbdbfff763dfb12fdU, 0x3e13b0d13e3fff76U, 0xbd6c4e1cU,
  0x3d6c4e1c3e2275b3U, 0xbe8c4e60bdfb12fdU, 0x3e84ebf0bd93b0d1U, 0x3d84ebf03bec4e1cU,
  0xbdb13a95bd13b0d1U, 0xbe4ec458be5626c9U, 0x3e313a95be2275b3U, 0xbd313a95bdbfff76U,
  0x3ee4ebab3da275b3U, 0x3ef761c53f193aa6U, 0x3bec4e1c3ecec458U, 0xbd6c4e1c3efec436U,
  0x3ed626c93e2275b3U, 0x3dbfff763f089d28U, 0x3dfb12fd3e9b1342U, 0xbe1b13423ebfff76U,
  0x3ee13a72bdec4e1cU, 0x3d84ebf03ee4ebabU, 0x3eb89d06U, 0x3cb13a953e3fff76U,
  0x3e84ebf03d93b0d1U, 0x3ec3b0af3ead895cU, 0x3e04ebf03e5d893aU, 0xbe9b13423dcec458U,
  0x3e3fff76be04ebf0U, 0x3d313a953e29d824U, 0x3dcec4583d84ebf0U, 0xbe313a953e64ebabU,
  0x3e9ec47bbcb13a95U, 0x3e9b13423dfb12fdU, 0x3cb13a953d313a95U, 0xbc6c4e1c3e4761e7U,
  0x3e5d893a3dec4e1cU, 0x3e889d283ed626c9U, 0x3c6c4e1c3e0c4e60U, 0x3da275b33eb4ebcdU,
  0x3eb13a95bd6c4e1cU, 0x3e4761e73eec4e1cU, 0x3db13a953d6c4e1cU, 0xbe389d063f031353U,
  0x3ed9d801bc6c4e1cU, 0x3e8fff993eefff54U, 0x3e0c4e603e4761e7U, 0xbe13b0d13e6c4e1cU,
  0x3eb89d06bd313a95U, 0x3e9b13423f089d28U, 0x3dec4e1c3e0c4e60U, 0x3dcec4583ed9d801U,
  0x3e313a95be1b1342U, 0x3efb12fd3e389d06U, 0x3d4ec4583e313a95U, 0xbd13b0d13f244e4fU,
  0x3ebc4e3ebda275b3U, 0x3efec4363ea9d824U, 0x3d13b0d13e313a95U, 0xbd4ec4583eefff54U,
  0x3ed275913c6c4e1cU, 0x3ec761e73e3fff76U, 0x3da275b33e6c4e1cU, 0xbdb13a953e93b0d1U,
  0x3ea275b3bddd893aU, 0x3e9b13423f244e4fU, 0xbcec4e1c3e0c4e60U, 0xbd93b0d13ed27591U,
  0x3e8fff99bcec4e1cU, 0x3e5d893a3f193aa6U, 0x3d13b0d13e13b0d1U, 0xbd84ebf000000000U,
  0x3ebc4e3ebdb13a95U, 0x3e5626c93e84ebf0U, 0xbcb13a953e9ec47bU, 0x3d4ec4583e313a95U,
  0x3e313a95be1b1342U, 0x3ebfff763ee89ce3U, 0x3cec4e1cbc6c4e1cU, 0x3d93b0d13ec761e7U,
  0x3e4ec458bdb13a95U, 0x3e2275b33ddd893aU, 0x3c6c4e1c00000000U, 0x3d13b0d13e3fff76U,
  0x3d4ec458bbec4e1cU, 0x3ea9d8243e29d824U, 0x3e1b134200000000U, 0x3d13b0d13f04ebf0U,
  0x3e84ebf0bd313a95U, 0x3eb13a953e0c4e60U, 0x3d84ebf0bbec4e1cU, 0x3cb13a953e7b12fdU,
  0x3ebfff763d13b0d1U, 0x3f06c48c3f089d28U, 0x3e0c4e603e2275b3U, 0xbdb13a953f17620aU,
  0x3f04ebf03c6c4e1cU, 0x3f4b13203f0e26fdU, 0xbcec4e1c3e4761e7U, 0x3c6c4e1c3f209d17U,
  0x3e93b0d1bd13b0d1U, 0x3ee4ebab3ee13a72U, 0x3e29d8243eb13a95U, 0xbe29d8243e13b0d1U,
  0x3ed626c9bd313a95U, 0x3e04ebf03eec4e1cU, 0x3dcec4583e04ebf0U, 0xbd13b0d13eb89d06U,
  0x3e889d283ddd893aU, 0x3da275b33e97620aU, 0xbcb13a953d93b0d1U, 0xbe6c4e1c3e4ec458U,
  0x3e813ab7bdcec458U, 0x3e9ec47b3dfb12fdU, 0x3cec4e1c3e4761e7U, 0xbe9b1342bd93b0d1U,
  0x3e6c4e1cbd313a95U, 0x3e6c4e1c3e13b0d1U, 0xbcb13a953dcec458U, 0xbdcec4583cb13a95U,
  0x3cec4e1cbe313a95U, 0x3ee13a723dfb12fdU, 0xbcec4e1c3e04ebf0U, 0xbe8c4e603ebfff76U,
  0x3e97620abe13b0d1U, 0x3e889d283e9ec47bU, 0x3cb13a953cb13a95U, 0xbd6c4e1c3e64ebabU,
  0x3e5626c93cb13a95U, 0x3ebfff763e5d893aU, 0x3d93b0d13ddd893aU, 0xbd13b0d13ec3b0afU,
  0x3eb13a95bdbfff76U, 0x3ecb13203ebfff76U, 0xbc6c4e1c3e73b08dU, 0xbdec4e1c3e6c4e1cU,
  0x3e8fff99bcb13a95U, 0x3ea275b33e13b0d1U, 0xbc6c4e1c3da275b3U, 0xbe313a953e7b12fdU,
  0x3e93b0d1bcec4e1cU, 0x3eb4ebcd3e889d28U, 0x3e1b1342bcb13a95U, 0xbe2275b33e97620aU,
  0x3e889d2800000000U, 0x3ecb13203eb13a95U, 0x3ddd893a3e13b0d1U, 0xbd6c4e1c3e0c4e60U,
  0x3ed27591bd313a95U, 0x3e8c4e603e8c4e60U, 0x3d313a953e389d06U, 0x3d313a953e6c4e1cU,
  0x3e1b1342be04ebf0U, 0x3dbfff763e64ebabU, 0x3dbfff763e5d893aU, 0xbe13b0d13e84ebf0U,
  0x3ea275b3be0c4e60U, 0x3da275b33ecec458U, 0x3da275b33d313a95U, 0xbcec4e1cbbec4e1cU,
  0x3dcec4583cb13a95U, 0x3e97620a3e73b08dU, 0x3d84ebf03dec4e1cU, 0xbdec4e1c3ea626ebU,
  0x3e0c4e603bec4e1cU, 0x3eefff543e7b12fdU, 0x3d93b0d13dfb12fdU, 0xbe84ebf03e7b12fdU,
  0x3e4ec4583d13b0d1U, 0x3e8c4e603e2275b3U, 0x3cb13a953db13a95U, 0xbe2275b33d93b0d1U,
  0x3dbfff763dcec458U, 0x3ecec4583e6c4e1cU, 0x3e13b0d13dec4e1cU, 0xbe93b0d13e889d28U,
  0x3e64ebabbe3fff76U, 0x3ef3b08d3e889d28U, 0xbc6c4e1cbc6c4e1cU, 0xbdcec4583ec3b0afU,
  0x3ea9d824be4761e7U, 0x3efb12fd3e9ec47bU, 0x3d6c4e1c3e84ebf0U, 0xbe2275b33ead895cU,
  0x3ed626c93e0c4e60U, 0x3f59d8013e84ebf0U, 0x3c6c4e1c3ddd893aU, 0xbe889d283f244e4fU,
  0xbd6c4e1cbd84ebf0U, 0xbdb13a95be8fff99U, 0x3cb13a95be13b0d1U, 0x3bec4e1cbd13b0d1U,
  0xbe389d06bcec4e1cU, 0x3dfb12fd3d4ec458U, 0x3d313a953e313a95U, 0x3e1b13423d93b0d1U,
  0xbdbfff763e13b0d1U, 0x3e0c4e603da275b3U, 0x3ead895cbbec4e1cU, 0xbd313a953dfb12fdU,
  0xbc6c4e1cbbec4e1cU, 0x3d13b0d1be0c4e60U, 0x3e389d06bd4ec458U, 0x3e04ebf03e6c4e1cU,
  0x3e4ec458be04ebf0U, 0x3e5626c9bc6c4e1cU, 0x3e29d8243cec4e1cU, 0x3d84ebf03db13a95U,
  0x3e1b13423cb13a95U, 0xbdb13a95bda275b3U, 0x3ea626ebbda275b3U, 0xbdbfff76U,
  0xbbec4e1c3e313a95U, 0x3cec4e1c3d313a95U, 0x3e4761e73bec4e1cU, 0xbe313a953cb13a95U,
  0x3c6c4e1cbd13b0d1U, 0x3c6c4e1c3d6c4e1cU, 0x3dec4e1cbcb13a95U, 0xbe5d893a3bec4e1cU,
  0x3da275b33dec4e1cU, 0x3d313a95be3fff76U, 0x3e93b0d13d84ebf0U, 0xbdec4e1cbda275b3U,
  0xbd84ebf0bd6c4e1cU, 0xbd4ec458be04ebf0U, 0x3d6c4e1c3e389d06U, 0xbd4ec458U,
  0x3ddd893a3d84ebf0U, 0xbd93b0d1bddd893aU, 0x3e73b08dbd4ec458U, 0xbd313a95bcec4e1cU,
  0xbcb13a95bd84ebf0U, 0x3da275b33d93b0d1U, 0x3e813ab7bdbfff76U, 0xbcec4e1c3d13b0d1U,
  0xbdb13a953d13b0d1U, 0x3cec4e1c3da275b3U, 0x3e9b13423e13b0d1U, 0xbe0c4e60bdfb12fdU,
  0x3e0c4e60U, 0xbdbfff76bcb13a95U, 0x3e6c4e1c3d93b0d1U, 0xbe29d824bdcec458U,
  0x3d313a953e29d824U, 0x3bec4e1cbe4ec458U, 0x3da275b3bbec4e1cU, 0x3d4ec458bd93b0d1U,
  0xbc6c4e1c3cb13a95U, 0xbcb13a953dbfff76U, 0x3e6c4e1c3cb13a95U, 0x3c6c4e1c3cec4e1cU,
  0xbe13b0d1bdcec458U, 0xbe1b1342bdfb12fdU, 0x3e97620a3e29d824U, 0xbcb13a953d313a95U,
  0x3e0c4e603d6c4e1cU, 0x3dbfff763c6c4e1cU, 0x3e64ebab3dcec458U, 0x3bec4e1cbd13b0d1U,
  0x3e13b0d1bc6c4e1cU, 0x3d93b0d13d4ec458U, 0x3e0c4e603e1b1342U, 0xbe2275b3be0c4e60U,
  0x3d4ec458bddd893aU, 0xbc6c4e1c3d84ebf0U, 0x3ea626eb3e73b08dU, 0xbdfb12fd00000000U,
  0xbdec4e1c3ddd893aU, 0xbd313a95be4761e7U, 0x3dcec458bdbfff76U, 0xbe4ec458bd93b0d1U,
  0xbe3fff76bd93b0d1U, 0xbcb13a95be3fff76U, 0x3ea275b33da275b3U, 0xbd93b0d1be5626c9U,
  0xbf031353bd313a95U, 0xbf15896dbf41d813U, 0x3e4ec458bed9d801U, 0x3e1b1342beb89d06U,
  0xbe73b08d3dcec458U, 0xbe7b12fdbed27591U, 0x3cb13a95be8c4e60U, 0x3e29d824be9ec47bU,
  0xbebfff763e813ab7U, 0xbea275b3bec761e7U, 0x3e04ebf0be5626c9U, 0x3e73b08dbe7b12fdU,
  0xbe93b0d13d4ec458U, 0xbebc4e3ebe5626c9U, 0x3e6c4e1cbe5626c9U, 0x3eb13a953ddd893aU,
  0xbe4761e7bc6c4e1cU, 0xbe73b08d3c6c4e1cU, 0xbcec4e1cbddd893aU, 0x3e2275b300000000U,
  0xbe0c4e603db13a95U, 0xbe6c4e1cbe93b0d1U, 0xbd4ec458bdbfff76U, 0x3e1b1342beb13a95U,
  0xbe889d283bec4e1cU, 0xbec761e7be13b0d1U, 0x3e29d8243c6c4e1cU, 0x3e04ebf0bebc4e3eU,
  0xbec3b0af3e313a95U, 0xbe93b0d1be4761e7U, 0x3e813ab7be6c4e1cU, 0x3cec4e1cbf0c4e60U,
  0xbec761e73db13a95U, 0xbeb4ebcdbeb13a95U, 0x3cec4e1cbe5626c9U, 0x3dfb12fdbe8fff99U,
  0xbec761e73e8fff99U, 0xbf031353becb1320U, 0x3e389d06bd4ec458U, 0x3e5626c9beb89d06U,
  0xbe8c4e603ea275b3U, 0xbf0fff99be313a95U, 0xbbec4e1c3dcec458U, 0x3dcec458bf0e26fdU,
  0xbdec4e1cbd6c4e1cU, 0xbf2f61f9befec436U, 0x3e4ec458bd6c4e1cU, 0x3da275b3bee13a72U,
  0xbe9b13423e64ebabU, 0xbea626ebbeb4ebcdU, 0x3e1b1342be4ec458U, 0xbd93b0d1be8c4e60U,
  0xbe4761e73e4ec458U, 0xbec761e7bed27591U, 0xbdbfff76be5d893aU, 0xbe29d824beb13a95U,
  0xbec3b0afbc6c4e1cU, 0xbeb4ebcdbe97620aU, 0x3e4761e7be29d824U, 0xbdfb12fdbddd893aU,
  0xbe2275b33c6c4e1cU, 0xbe04ebf0bebfff76U, 0x3e4ec458be29d824U, 0x3e2275b3be0c4e60U,
  0xbea626eb3e889d28U, 0xbf193aa6bebfff76U, 0xbc6c4e1cbdfb12fdU, 0x3e29d824bf06c48cU,
  0xbdb13a953dfb12fdU, 0xbecec458bebfff76U, 0xbd84ebf03c6c4e1cU, 0xbcb13a95befb12fdU,
  0xbd93b0d13e73b08dU, 0xbe9ec47bbed27591U, 0x3e2275b3bdbfff76U, 0x3d84ebf0bf089d28U,
  0xbcec4e1c3e4761e7U, 0xbf0e26fdbe84ebf0U, 0x3e2275b3bd6c4e1cU, 0x3d84ebf0bec761e7U,
  0xbebc4e3e3e4ec458U, 0xbf1cebdebe7b12fdU, 0x3e13b0d13d13b0d1U, 0x3e389d06bed9d801U,
  0xbe389d063da275b3U, 0xbf331331bf031353U, 0xbd4ec4583d13b0d1U, 0x3e2275b3bf15896dU,
  0x3c6c4e1c3dbfff76U, 0x3e04ebf03e7b12fdU, 0xbe389d063e13b0d1U, 0x3e5d893a3e64ebabU,
  0x3bec4e1c3bec4e1cU, 0x3bec4e1c3e1b1342U, 0x3bec4e1c3e64ebabU, 0x3e93b0d13d84ebf0U,
  0x3d84ebf03da275b3U, 0x3d13b0d13e4761e7U, 0xbdcec458bd84ebf0U, 0x3e313a95bc6c4e1cU,
  0x3e4761e73e73b08dU, 0x3cec4e1c3e84ebf0U, 0xbe0c4e60bdb13a95U, 0x3e73b08d3dec4e1cU,
  0xbbec4e1c3c6c4e1cU, 0x3e13b0d13e13b0d1U, 0xbd313a953e73b08dU, 0x3e1b13423e813ab7U,
  0x3db13a953e04ebf0U, 0x3e9ec47b3dbfff76U, 0x3d13b0d13e1b1342U, 0x3e4ec4583dcec458U,
  0x3e3fff76bdfb12fdU, 0x3dcec4583da275b3U, 0xbe29d8243cec4e1cU, 0x3eb4ebcd3e13b0d1U,
  0x3e4761e73dcec458U, 0x3e1b1342bd4ec458U, 0xbe4ec4583e04ebf0U, 0x3e13b0d13e13b0d1U,
  0x3d4ec4583dec4e1cU, 0x3e84ebf03ddd893aU, 0xbc6c4e1c3e4761e7U, 0x3db13a953d13b0d1U,
  0x3d93b0d13d313a95U, 0x3e7b12fd3e0c4e60U, 0xbe29d8243bec4e1cU, 0x3da275b33e4ec458U,
  0x3e13b0d13e0c4e60U, 0x3e889d283dcec458U, 0xbe04ebf03da275b3U, 0x3dcec4583e64ebabU,
  0x3db13a953e2275b3U, 0x3e5626c93e5d893aU, 0xbd84ebf03dcec458U, 0xbd13b0d13e64ebabU,
  0x3c6c4e1c3cec4e1cU, 0x3e4761e73d6c4e1cU, 0xbdfb12fd3d93b0d1U, 0x3e7b12fd3e0c4e60U,
  0xbd313a953e1b1342U, 0x3e64ebab3e64ebabU, 0xbe4761e73dec4e1cU, 0x3d313a953e4761e7U,
  0x3e6c4e1c3e73b08dU, 0xbd4ec45800000000U, 0x3e2275b3U, 0x3ddd893a3e6c4e1cU,
  0x3e0c4e603e3fff76U, 0x3bec4e1c3e4761e7U, 0xbe5d893a3db13a95U, 0x3e73b08dbc6c4e1cU,
  0x3e313a953e5d893aU, 0x3e4ec4583dbfff76U, 0xbe29d8243ddd893aU, 0x3e813ab73dbfff76U,
  0x3d313a95U, 0x3e5626c93e0c4e60U, 0xbe73b08dbbec4e1cU, 0x3e4761e73dbfff76U,
  0x3dbfff76bdbfff76U, 0x3e7b12fdU, 0xbe0c4e603d93b0d1U, 0x3e8fff993e29d824U,
  0xbd4ec4583e2275b3U, 0x3e3fff7600000000U, 0xbe4ec4583e313a95U, 0x3e29d8243e389d06U,
  0x3e0c4e603e97620aU, 0xbcb13a953d84ebf0U, 0xbd93b0d1bdbfff76U, 0x3ead895c3d13b0d1U,
  0xbcec4e1cbd6c4e1cU, 0x3e84ebf03e4ec458U, 0x3c6c4e1cbdbfff76U, 0x3e2275b33e4ec458U,
  0xbea275b3bddd893aU, 0xbec3b0afbf193aa6U, 0x3e13b0d1be93b0d1U, 0x3e73b08dbf04ebf0U,
  0xbee13a72bda275b3U, 0xbeb4ebcdbf244e4fU, 0xbd84ebf000000000U, 0x3e64ebabbddd893aU,
  0xbea9d8243d93b0d1U, 0xbdcec458bead895cU, 0xbc6c4e1cbbec4e1cU, 0x3ea626ebbe5626c9U,
  0xbed275913cb13a95U, 0xbe9ec47bbe9b1342U, 0x3d6c4e1cbe813ab7U, 0x3ec3b0afbe3fff76U,
  0xbe7b12fd3c6c4e1cU, 0xbedd893abeefff54U, 0xbcb13a953db13a95U, 0x3e8fff99beec4e1cU,
  0xbd4ec458bd13b0d1U, 0xbecec458bea275b3U, 0x3dcec4583dbfff76U, 0x3e313a95be97620aU,
  0xbebc4e3e3cb13a95U, 0xbed27591bef3b08dU, 0x3dcec4583cec4e1cU, 0xbd84ebf0be3fff76U,
  0xbe29d8243d6c4e1cU, 0xbe7b12fdbe3fff76U, 0x3bec4e1c3d313a95U, 0x3d84ebf0be84ebf0U,
  0xbeb4ebcd3bec4e1cU, 0xbefb12fdbf031353U, 0x3cb13a95bd93b0d1U, 0x3e889d28becb1320U,
  0xbeb4ebcd3d13b0d1U, 0xbf389d06bf0a75c4U, 0x3cb13a9500000000U, 0x3e0c4e60bf244e4fU,
  0xbea275b300000000U, 0xbeefff54bec3b0afU, 0xbcb13a95bd313a95U, 0x3cb13a95bf0a75c4U,
  0xbe389d063e4ec458U, 0xbf2bb0c0bf0fff99U, 0x3cb13a95be0c4e60U, 0x3e13b0d1bed27591U,
  0xbe4761e73e5d893aU, 0xbedd893abebc4e3eU, 0x3d4ec458be813ab7U, 0x3e04ebf0bf089d28U,
  0xbec3b0af3e313a95U, 0xbe889d28bebc4e3eU, 0x3d4ec458bbec4e1cU, 0xbd93b0d1bebfff76U,
  0xbead895c3ddd893aU, 0xbee4ebabbefec436U, 0xbcec4e1cU, 0x3e04ebf0bdb13a95U,
  0xbe29d8243e3fff76U, 0xbdcec458bec3b0afU, 0x3db13a95be5626c9U, 0xbd6c4e1cbee4ebabU,
  0xbe889d283e8c4e60U, 0xbf1b1342bf031353U, 0x3e0c4e60bdec4e1cU, 0xbee89ce3U,
  0xbe84ebf000000000U, 0xbedd893abe9ec47bU, 0xbe5d893aU, 0x3e04ebf0befec436U,
  0xbdbfff763ddd893aU, 0xbee4ebabbe84ebf0U, 0x3da275b3bd13b0d1U, 0x3d6c4e1cbefec436U,
  0xbe13b0d13cec4e1cU, 0xbeb89d06bed626c9U, 0x3e1b13423cec4e1cU, 0x3d6c4e1cbefec436U,
  0xbe64ebab3d4ec458U, 0xbf1b1342be4ec458U, 0x3d84ebf03dcec458U, 0x3e889d28bec761e7U,
  0xbe9ec47bbe389d06U, 0xbf2d895cbec3b0afU, 0x3e1b1342bd93b0d1U, 0x3e0c4e60bed626c9U,
  0x3e1b1342bbec4e1cU, 0x3e5d893a00000000U, 0x3e0c4e60bd6c4e1cU, 0xbe813ab7bcb13a95U,
  0x3e04ebf0bcec4e1cU, 0x3dcec4583dbfff76U, 0x3dec4e1c3cec4e1cU, 0xbd6c4e1cbd13b0d1U,
  0x3d4ec458bc6c4e1cU, 0xbcb13a953d93b0d1U, 0xbd13b0d1bc6c4e1cU, 0xbda275b3bcb13a95U,
  0x3d13b0d1be5626c9U, 0xbd93b0d1bda275b3U, 0x3db13a95bd13b0d1U, 0xbe64ebabbd313a95U,
  0x3db13a95be4ec458U, 0xbbec4e1c3e29d824U, 0xbbec4e1c3e13b0d1U, 0xbea9d824bd93b0d1U,
  0x3dec4e1cbe6c4e1cU, 0x3d93b0d1bdcec458U, 0xbd6c4e1c3e04ebf0U, 0xbe1b13423bec4e1cU,
  0xbdfb12fdbd93b0d1U, 0xbdfb12fd3e313a95U, 0x3e0c4e603d84ebf0U, 0xbe6c4e1c3e389d06U,
  0x3da275b3be7b12fdU, 0xbd6c4e1c3bec4e1cU, 0x3e29d8243dbfff76U, 0xbe93b0d13d313a95U,
  0xbd13b0d1be1b1342U, 0xbd4ec458bbec4e1cU, 0x3e313a953c6c4e1cU, 0xbea275b33e04ebf0U,
  0x3d13b0d13d313a95U, 0xbcb13a953db13a95U, 0x3dfb12fd3d6c4e1cU, 0xbe29d82400000000U,
  0x3e3fff76be313a95U, 0x3cec4e1cbd13b0d1U, 0x3ddd893a3e389d06U, 0xbdbfff763d93b0d1U,
  0x3bec4e1cbe73b08dU, 0xbbec4e1c3e04ebf0U, 0x0U, 0x3d6c4e1cbd6c4e1cU,
  0x3e6c4e1cbdcec458U, 0x3d313a95bda275b3U, 0x3e813ab73ddd893aU, 0xbe813ab73d93b0d1U,
  0x3e1b13423bec4e1cU, 0x3d313a953e1b1342U, 0x3e4761e7U, 0x3cec4e1cbdb13a95U,
  0x3e5626c9be73b08dU, 0x3e313a95bdb13a95U, 0xbd13b0d1bcec4e1cU, 0x3c6c4e1cbddd893aU,
  0x3e73b08dbcec4e1cU, 0x3d4ec4583e1b1342U, 0x3d13b0d13e13b0d1U, 0x3cb13a953dcec458U,
  0xbd6c4e1cbe313a95U, 0x3da275b3bd93b0d1U, 0x3e389d06bda275b3U, 0xbe6c4e1cbd13b0d1U,
  0x3d13b0d13cec4e1cU, 0x3bec4e1cbd93b0d1U, 0x3ddd893a3bec4e1cU, 0xbcb13a95bda275b3U,
  0x3db13a95be13b0d1U, 0x3ddd893a3e313a95U, 0x3e4761e7bd13b0d1U, 0xbe84ebf03d6c4e1cU,
  0x3d313a95be2275b3U, 0x3d313a953e3fff76U, 0x3da275b3bc6c4e1cU, 0xbe889d28bd6c4e1cU,
  0x3db13a95bd6c4e1cU, 0x3e04ebf0bdec4e1cU, 0x3cec4e1c3e29d824U, 0xbe93b0d13d84ebf0U,
  0x3d13b0d13cb13a95U, 0x3da275b300000000U, 0x3e5d893abd93b0d1U, 0xbe93b0d13e0c4e60U,
  0x3f13b0d13dbfff76U, 0x3ec761e73f27ff88U, 0x3e04ebf03e889d28U, 0xbe9ec47b3e84ebf0U,
  0x3f1b1342bd4ec458U, 0x3dcec4583ee13a72U, 0x3c6c4e1c3e889d28U, 0x3cb13a953ebfff76U,
  0x3eb89d063dec4e1cU, 0x3e8fff993ec3b0afU, 0xbd6c4e1c3e4ec458U, 0xbc6c4e1c3e389d06U,
  0x3eb89d063da275b3U, 0x3ecb13203eb89d06U, 0x3bec4e1c3da275b3U, 0xbe73b08d3db13a95U,
  0x3e9b1342bdfb12fdU, 0x3da275b33e13b0d1U, 0x3d313a95bd6c4e1cU, 0xbe389d063cb13a95U,
  0x3e9ec47b3db13a95U, 0x3e8fff993e29d824U, 0xbd93b0d1U, 0xbe313a953eefff54U,
  0x3ee13a72bd313a95U, 0x3ea9d8243ec761e7U, 0x3bec4e1c3e04ebf0U, 0xbbec4e1c3e1b1342U,
  0x3ef3b08d3d6c4e1cU, 0x3efb12fd3f0a75c4U, 0x3cb13a953d6c4e1cU, 0xbe1b13423e9b1342U,
  0x3e6c4e1cbe0c4e60U, 0x3ee4ebab3ed27591U, 0x3d93b0d13e2275b3U, 0xbe73b08d3e97620aU,
  0x3eec4e1cbd84ebf0U, 0x3ecb13203e8fff99U, 0x3db13a953d6c4e1cU, 0x3dbfff763e97620aU,
  0x3e97620a3c6c4e1cU, 0x3ed275913eb13a95U, 0x3e1b13423e13b0d1U, 0x3ddd893a3f27ff88U,
  0x3e64ebab3d84ebf0U, 0x3ebc4e3e3e97620aU, 0x3e1b13423d84ebf0U, 0x3dbfff763e8c4e60U,
  0x3e9b1342bd4ec458U, 0x3e8c4e603efb12fdU, 0x3e2275b33e84ebf0U, 0x3d93b0d13ea626ebU,
  0x3e8c4e603bec4e1cU, 0x3eb13a953f13b0d1U, 0x3dfb12fd3e97620aU, 0x3e5626c9U,
  0x3eefff54bd13b0d1U, 0x3e5d893a3ec761e7U, 0x3d93b0d13d93b0d1U, 0x3e0c4e603dcec458U,
  0x3ec3b0af3bec4e1cU, 0x3e9ec47b3e93b0d1U, 0x3d13b0d13e313a95U, 0x3cb13a953e8c4e60U,
  0x3ebc4e3ebe0c4e60U, 0x3f04ebf03ecb1320U, 0x3da275b33c6c4e1cU, 0x3d13b0d13ea9d824U,
  0x3e813ab73db13a95U, 0x3e13b0d13e9b1342U, 0xbd6c4e1c3dcec458U, 0xbbec4e1c3e84ebf0U,
  0xbd313a95bd84ebf0U, 0x3ed9d8013e3fff76U, 0x3d6c4e1c3e1b1342U, 0xbdbfff763e889d28U,
  0x3e3fff76be29d824U, 0x3e93b0d13ea9d824U, 0x3dfb12fdbdbfff76U, 0xbdcec4583e93b0d1U,
  0x3e313a95be13b0d1U, 0x3ee89ce33eec4e1cU, 0x3e4761e7bcec4e1cU, 0xbdfb12fd3ecb1320U,
  0x3e9ec47bbcb13a95U, 0x3f5bb09e3ecec458U, 0x3d84ebf03e8c4e60U, 0xbe7b12fd3f34ebcdU,
  0x3ef3b08d3da275b3U, 0x3e64ebab3ee89ce3U, 0xbbec4e1c3ea626ebU, 0x3cb13a953ea626ebU,
  0x3e9b13423e313a95U, 0x3e73b08d3eb4ebcdU, 0x3c6c4e1c3e8c4e60U, 0xbe313a953c6c4e1cU,
  0x3e04ebf0bd6c4e1cU, 0x3dbfff763e5d893aU, 0xbd13b0d13da275b3U, 0xbe313a953e5d893aU,
  0x3e6c4e1c3cec4e1cU, 0x3db13a953eb13a95U, 0xbd4ec4583d313a95U, 0xbe29d8243bec4e1cU,
  0x3cb13a953dcec458U, 0x3e313a953e9b1342U, 0x3d13b0d13d313a95U, 0xbcec4e1c3d93b0d1U,
  0x3e3fff76be2275b3U, 0x3e97620a3e64ebabU, 0xbcb13a953e4ec458U, 0x3ddd893a3da275b3U,
  0x3e8c4e60bd6c4e1cU, 0x3ea9d8243e2275b3U, 0x3da275b3bd13b0d1U, 0x3d13b0d13e04ebf0U,
  0x3e6c4e1c3dcec458U, 0x3eb89d063e9ec47bU, 0x3bec4e1c3e8c4e60U, 0x3cb13a953e8c4e60U,
  0x3ddd893abe2275b3U, 0x3e9ec47b3f031353U, 0xbbec4e1cbc6c4e1cU, 0x3dfb12fd3eb13a95U,
  0x3e29d824be4761e7U, 0x3e84ebf03e5d893aU, 0x3d13b0d13e29d824U, 0x3dec4e1c3eb4ebcdU,
  0x3e7b12fdbe13b0d1U, 0x3e84ebf03e8c4e60U, 0x3d313a953e4761e7U, 0x3e29d8243e73b08dU,
  0x3da275b3be13b0d1U, 0x3ea275b33e6c4e1cU, 0x3e889d28U, 0xbcb13a953db13a95U,
  0x3e6c4e1c00000000U, 0x3dec4e1c3dbfff76U, 0x3e389d063d4ec458U, 0x3cec4e1c3eb89d06U,
  0x3e93b0d1bd93b0d1U, 0x3e64ebab3ea9d824U, 0x3e389d063e4ec458U, 0x3e13b0d13e84ebf0U,
  0x3e4ec458be313a95U, 0x3cec4e1c3eb89d06U, 0x3cec4e1c3e5626c9U, 0x3dec4e1c3e6c4e1cU,
  0x3e5626c9bd4ec458U, 0x3e73b08d3db13a95U, 0xbd6c4e1c3d313a95U, 0x3db13a953e8fff99U,
  0x3e97620abd84ebf0U, 0x3e5d893a3eb4ebcdU, 0x3e13b0d13bec4e1cU, 0xbc6c4e1c3c6c4e1cU,
  0x3d13b0d13cec4e1cU, 0x3c6c4e1c3e389d06U, 0x3e0c4e603d84ebf0U, 0x3c6c4e1c3dcec458U,
  0x3d13b0d13dbfff76U, 0x3e64ebab3e389d06U, 0x3cb13a953d93b0d1U, 0x3d4ec4583e9ec47bU,
  0x3e64ebabbe13b0d1U, 0x3e889d283e64ebabU, 0x3dcec4583e13b0d1U, 0x3da275b33ea275b3U,
  0x3dfb12fd3d93b0d1U, 0x3e813ab73e5d893aU, 0x3bec4e1c3e889d28U, 0x3d13b0d13efb12fdU,
  0x3e6c4e1c3da275b3U, 0x3f2275b33e9b1342U, 0x3ddd893a3e9ec47bU, 0xbe1b13423ef761c5U,
  0x3e389d06bcb13a95U, 0x3e04ebf0bdcec458U, 0x3d4ec458bcec4e1cU, 0xbdbfff76bdcec458U,
  0x3dbfff76be7b12fdU, 0x3dcec4583cb13a95U, 0x3da275b33e313a95U, 0xbd84ebf0bd6c4e1cU,
  0xbd13b0d1be64ebabU, 0x3d13b0d1bcec4e1cU, 0x3db13a95U, 0xbd93b0d13dcec458U,
  0x3e0c4e60be313a95U, 0xbda275b3bdbfff76U, 0x3db13a953ddd893aU, 0xbdbfff76bdec4e1cU,
  0xbc6c4e1cbe5626c9U, 0x3d84ebf0bcec4e1cU, 0x3e73b08d3e3fff76U, 0xbc6c4e1c3d13b0d1U,
  0x3dcec458be29d824U, 0x3d4ec4583d313a95U, 0x3e6c4e1c3d93b0d1U, 0xbea626ebbd313a95U,
  0x3bec4e1cbe389d06U, 0xbdfb12fd3d6c4e1cU, 0x3db13a953ddd893aU, 0xbe5626c9bd6c4e1cU,
  0xbd313a953d4ec458U, 0xbd6c4e1cbd93b0d1U, 0x3bec4e1cU, 0xbea9d8243cb13a95U,
  0x3db13a95be3fff76U, 0xbdec4e1cbdfb12fdU, 0x3dcec4583d13b0d1U, 0xbe1b13423d313a95U,
  0x3d313a95be313a95U, 0x3e0c4e60bc6c4e1cU, 0x3d84ebf03d6c4e1cU, 0xbc6c4e1c3e04ebf0U,
  0xbd4ec458bdcec458U, 0x3d84ebf0bd84ebf0U, 0x3dec4e1cbcec4e1cU, 0xbe813ab73bec4e1cU,
  0x3dbfff76be3fff76U, 0xbe04ebf03d84ebf0U, 0x3e5626c93dfb12fdU, 0xbe3fff763dcec458U,
  0xbda275b3bda275b3U, 0xbdcec458bdbfff76U, 0x3dec4e1c3c6c4e1cU, 0xbcec4e1cbd13b0d1U,
  0x3dec4e1cbe389d06U, 0xbd13b0d1bd13b0d1U, 0x3e9b13423d4ec458U, 0xbe4761e7bddd893aU,
  0x3d4ec458be13b0d1U, 0xbe0c4e60bd93b0d1U, 0x3e8fff993dbfff76U, 0x3cec4e1cbda275b3U,
  0xbd6c4e1c3cb13a95U, 0x3bec4e1c3bec4e1cU, 0x3d4ec4583d93b0d1U, 0xbe29d824bda275b3U,
  0xbd313a95be2275b3U, 0x3cb13a95bd313a95U, 0x3e64ebab3e4761e7U, 0xbe9ec47bbd84ebf0U,
  0x3e6c4e1cbcec4e1cU, 0xbd4ec458bd4ec458U, 0x3e8c4e60bd313a95U, 0xbdec4e1c3d4ec458U,
  0xbbec4e1cbe84ebf0U, 0xbda275b3bda275b3U, 0x3e8fff993db13a95U, 0xbda275b33e0c4e60U,
  0x3dbfff76be4761e7U, 0x3d6c4e1c3bec4e1cU, 0x3e4ec4583e04ebf0U, 0xbe84ebf03e13b0d1U,
  0xbdec4e1cbe389d06U, 0x3cec4e1c3cb13a95U, 0x3e9ec47bbbec4e1cU, 0xbeb13a953d84ebf0U,
  0x3c6c4e1cbd313a95U, 0x3cb13a95bd313a95U, 0x3d6c4e1cbe1b1342U, 0xbe5d893a3cec4e1cU,
  0xbebfff763bec4e1cU, 0xbe13b0d1be73b08dU, 0x3d6c4e1cbe64ebabU, 0x3e4761e7bdec4e1cU,
  0xbe389d06bd313a95U, 0x3e3fff76be889d28U, 0x3dfb12fd3dfb12fdU, 0x3dcec4583e0c4e60U,
  0xbcec4e1c3e313a95U, 0xbd84ebf03cb13a95U, 0x3da275b33d6c4e1cU, 0x3e389d063d93b0d1U,
  0xbe0c4e603cec4e1cU, 0xbe389d06bdb13a95U, 0x3dec4e1c3dfb12fdU, 0x3ed626c93da275b3U,
  0xbd313a95bc6c4e1cU, 0x3e13b0d1U, 0x3e3fff763e1b1342U, 0x3e84ebf03d6c4e1cU,
  0xbdcec4583e64ebabU, 0x3d13b0d13dbfff76U, 0x3bec4e1c3e3fff76U, 0x3dbfff76bd6c4e1cU,
  0xbe04ebf000000000U, 0xbd13b0d1bd6c4e1cU, 0x3e64ebabbdb13a95U, 0x3d4ec458bd13b0d1U,
  0xbddd893a3db13a95U, 0x3d4ec458bcec4e1cU, 0x3d4ec4583e13b0d1U, 0x3dfb12fdbe93b0d1U,
  0x3bec4e1cbcec4e1cU, 0xbd13b0d1be13b0d1U, 0x3dbfff76bdb13a95U, 0xbcb13a953d4ec458U,
  0x3d93b0d13e389d06U, 0x3d6c4e1cbe97620aU, 0x3dcec458bd6c4e1cU, 0x3d313a953cb13a95U,
  0x3dfb12fdU, 0xbe8fff99be389d06U, 0x3d6c4e1c3cec4e1cU, 0xbdcec458be13b0d1U,
  0xbdcec4583e04ebf0U, 0xbd6c4e1cbe64ebabU, 0x3d84ebf0be04ebf0U, 0x3e3fff76bd4ec458U,
  0xbdfb12fd3d313a95U, 0x3da275b3bd93b0d1U, 0x3dbfff76bdfb12fdU, 0xbdfb12fdbbec4e1cU,
  0xbe5626c93e389d06U, 0x3cb13a95be813ab7U, 0x3e7b12fdbdfb12fdU, 0xbd313a953da275b3U,
  0xbdec4e1c3e4ec458U, 0x3bec4e1cbe9b1342U, 0x3e84ebf0bcec4e1cU, 0xbddd893a3e29d824U,
  0x3d13b0d13e04ebf0U, 0x3e29d82400000000U, 0x3e1b1342be0c4e60U, 0xbdbfff76be389d06U,
  0xbe3fff763cec4e1cU, 0xbe5d893abe13b0d1U, 0x3e8fff993ddd893aU, 0x3d84ebf0bcec4e1cU,
  0x3d4ec4583dcec458U, 0x3d13b0d1U, 0x3d93b0d13d4ec458U, 0xbdec4e1cbd313a95U,
  0x3c6c4e1c3db13a95U, 0x3bec4e1c3ddd893aU, 0x3e5d893a3ddd893aU, 0x3d4ec458be93b0d1U,
  0x3d84ebf0bd6c4e1cU, 0x3c6c4e1c3ddd893aU, 0x3e889d283cec4e1cU, 0xbe6c4e1cU,
  0xbbec4e1c3cb13a95U, 0xbddd893abe73b08dU, 0x3d84ebf0be1b1342U, 0x3e5626c9bcec4e1cU,
  0xbd84ebf03d84ebf0U, 0xbf04ebf0be97620aU, 0x3e13b0d13c6c4e1cU, 0x3ddd893abeb89d06U,
  0x3e889d2800000000U, 0x3dec4e1c3e6c4e1cU, 0x3e4ec4583e97620aU, 0xbdbfff763e889d28U,
  0x3e04ebf03d13b0d1U, 0x3cb13a953e389d06U, 0x3dcec4583da275b3U, 0xbe389d063ddd893aU,
  0x3e93b0d13d6c4e1cU, 0x3da275b33e7b12fdU, 0xbdb13a953e5d893aU, 0x3d6c4e1c3d6c4e1cU,
  0x3e9ec47bbc6c4e1cU, 0x3e5d893a3cb13a95U, 0x3e4ec4583e5626c9U, 0xbeb4ebcd3d84ebf0U,
  0x3d4ec458U, 0xbd93b0d13dcec458U, 0xbcb13a953d93b0d1U, 0xbe1b13423cb13a95U,
  0x3e64ebabbe4761e7U, 0x3d313a95bda275b3U, 0x3e13b0d13cb13a95U, 0xbe4761e73dec4e1cU,
  0x3d13b0d1bd13b0d1U, 0x3da275b3bd6c4e1cU, 0x3cec4e1c3e0c4e60U, 0xbda275b3bc6c4e1cU,
  0x3ead895cbc6c4e1cU, 0x3d93b0d13d6c4e1cU, 0xbcb13a953db13a95U, 0xbea626eb3e8c4e60U,
  0x3dbfff76be2275b3U, 0x3db13a953d93b0d1U, 0x3c6c4e1cbd84ebf0U, 0xbe313a95bbec4e1cU,
  0x3e313a95bd313a95U, 0x3ddd893a3d13b0d1U, 0x3d93b0d13e04ebf0U, 0xbe9b13423e3fff76U,
  0x3e13b0d1bdec4e1cU, 0x3e9ec47b3cb13a95U, 0x3d6c4e1cbd6c4e1cU, 0xbe0c4e603ead895cU,
  0x3e313a95bcec4e1cU, 0x3e0c4e603dfb12fdU, 0x3ddd893abd84ebf0U, 0xbe5626c93e84ebf0U,
  0x3e97620abe5626c9U, 0x3e5626c93dec4e1cU, 0x3d93b0d13cec4e1cU, 0xbe8fff993e73b08dU,
  0x3dbfff76be4761e7U, 0x3dcec4583e93b0d1U, 0x3da275b33e8c4e60U, 0xbe3fff763e389d06U,
  0x3e313a953cb13a95U, 0x3d6c4e1c3ddd893aU, 0x3e29d824bbec4e1cU, 0xbe4ec458bdec4e1cU,
  0x3e13b0d1bdcec458U, 0xbd6c4e1c3e5626c9U, 0x3dec4e1c3d4ec458U, 0xbe8fff99bcec4e1cU,
  0x3e73b08dbcec4e1cU, 0x3e5626c93d313a95U, 0x3cec4e1cbc6c4e1cU, 0xbe889d283d6c4e1cU,
  0x3dcec458bd313a95U, 0x3d313a953db13a95U, 0x3d4ec458bdb13a95U, 0xbdb13a95bdb13a95U,
  0x3d313a95bbec4e1cU, 0x3e5626c9bda275b3U, 0xbcb13a953bec4e1cU, 0xbe9ec47b3eb89d06U,
  0x3e13b0d1be5d893aU, 0x3e9ec47b3e13b0d1U, 0x3cec4e1cbd84ebf0U, 0xbe73b08d3e813ab7U,
  0x3c6c4e1cbdec4e1cU, 0x3d13b0d13e889d28U, 0x3d84ebf0bdec4e1cU, 0xbe13b0d13e813ab7U,
  0x3e313a953cb13a95U, 0x3eefff543ea275b3U, 0xbd93b0d13d6c4e1cU, 0xbec3b0af3e1b1342U,
  0xbf06c48c3e29d824U, 0xbe6c4e1cbec761e7U, 0x3e64ebabbe13b0d1U, 0x3e7b12fdbe813ab7U,
  0xbe1b1342bc6c4e1cU, 0x3cec4e1cbe64ebabU, 0x3e73b08dbbec4e1cU, 0x3e3fff76bd13b0d1U,
  0xbe389d063d4ec458U, 0xbdbfff76bea9d824U, 0x3cec4e1cbe04ebf0U, 0x3dbfff76bd13b0d1U,
  0xbdb13a953e6c4e1cU, 0xbda275b3be73b08dU, 0x3ddd893abe4761e7U, 0x3ec3b0af3ddd893aU,
  0x3dcec4583e1b1342U, 0xbcb13a95be5d893aU, 0x3cec4e1c3e1b1342U, 0x3e5626c9bdec4e1cU,
  0xbe4ec4583dbfff76U, 0xbd84ebf0be8fff99U, 0x3e84ebf03dec4e1cU, 0x3e13b0d1be889d28U,
  0xbdec4e1c3dfb12fdU, 0xbd4ec458be3fff76U, 0xbd313a95bd6c4e1cU, 0xbdbfff76be813ab7U,
  0xbe5626c93e1b1342U, 0xbe73b08dbe13b0d1U, 0x3d93b0d1bcb13a95U, 0xbd4ec458be29d824U,
  0xbe389d063c6c4e1cU, 0xbe4761e7be73b08dU, 0xbcec4e1cbe4761e7U, 0x3e13b0d1be8c4e60U,
  0xbcb13a953dec4e1cU, 0xbe29d824be4761e7U, 0x3d93b0d13d13b0d1U, 0xbdcec458bea626ebU,
  0xbe3fff763e13b0d1U, 0xbefec436be5626c9U, 0xbc6c4e1cbdec4e1cU, 0x3c6c4e1cbe84ebf0U,
  0xbda275b3bd84ebf0U, 0xbe04ebf0be1b1342U, 0x3e7b12fdbe13b0d1U, 0xbcb13a95be5d893aU,
  0xbe13b0d13e73b08dU, 0xbd93b0d1bdec4e1cU, 0x3e813ab7bda275b3U, 0x3d93b0d1bd93b0d1U,
  0xbe73b08d3e6c4e1cU, 0xbd84ebf0beb13a95U, 0x3e313a95bd6c4e1cU, 0xbe29d824bdb13a95U,
  0xbe313a953e5d893aU, 0xbd13b0d1bead895cU, 0x3c6c4e1cbbec4e1cU, 0xbe2275b3bcec4e1cU,
  0xbcb13a953e73b08dU, 0x3c6c4e1cbe1b1342U, 0x3c6c4e1cbd313a95U, 0x3bec4e1cbe7b12fdU,
  0xbd84ebf03c6c4e1cU, 0xbe813ab7be5d893aU, 0x3db13a953d93b0d1U, 0xbd4ec458be0c4e60U,
  0x3e2275b3U, 0xbc6c4e1cbe313a95U, 0x3e2275b33db13a95U, 0xbddd893abdec4e1cU,
  0x3ddd893a3e2275b3U, 0xbd13b0d13c6c4e1cU, 0x3e3fff76bd93b0d1U, 0xbe0c4e60U,
  0xbdfb12fd3e84ebf0U, 0xbe04ebf0be889d28U, 0x3d84ebf0bd6c4e1cU, 0xbd313a95be3fff76U,
  0xbe29d824bbec4e1cU, 0xbef761c5be84ebf0U, 0x3e29d8243d4ec458U, 0x3e04ebf0be313a95U,
  0xbe2275b33e04ebf0U, 0xbf1cebdebed9d801U, 0x3e3fff76bd13b0d1U, 0x3cec4e1cbf04ebf0U,
  0x3ef3b08d3d93b0d1U, 0x3e97620a3ecb1320U, 0x3e29d8243e8c4e60U, 0xbe8c4e603ead895cU,
  0x3ec3b0afbe04ebf0U, 0x3ddd893a3e9b1342U, 0x3e4761e73da275b3U, 0xbe4ec4583da275b3U,
  0x3ea626eb3dbfff76U, 0x3d313a953dfb12fdU, 0xbd84ebf03e6c4e1cU, 0xbe4761e73da275b3U,
  0x3dfb12fdbdb13a95U, 0x3e97620a3bec4e1cU, 0x3cec4e1c00000000U, 0xbed626c9be389d06U,
  0x3d6c4e1c3d93b0d1U, 0x3e2275b3bc6c4e1cU, 0x3d93b0d13d13b0d1U, 0xbe6c4e1c3e4761e7U,
  0x3e04ebf0bd13b0d1U, 0x3e97620abbec4e1cU, 0x3e1b13423e04ebf0U, 0xbe9b13423ead895cU,
  0x3e4ec458be0c4e60U, 0x3dfb12fd3e93b0d1U, 0x3e2275b3bc6c4e1cU, 0x3cb13a953dec4e1cU,
  0x3e1b13423d4ec458U, 0x3e84ebf03e29d824U, 0x3d84ebf03db13a95U, 0xbe93b0d13e813ab7U,
  0x3e13b0d13d6c4e1cU, 0x3e5d893a3ee89ce3U, 0xbd4ec4583e2275b3U, 0xbe1b13423e5d893aU,
  0x3e29d824bdcec458U, 0x3e813ab73ea9d824U, 0x3c6c4e1c3dec4e1cU, 0xbe29d8243ed27591U,
  0x3e7b12fdbe5d893aU, 0x3f013ab73e2275b3U, 0xbbec4e1cbd84ebf0U, 0xbe4ec4583efec436U,
  0x3e2275b33dcec458U, 0x3edd893a3dec4e1cU, 0x3e3fff763e7b12fdU, 0xbd93b0d13e8c4e60U,
  0x3e3fff76be2275b3U, 0x3e8c4e603da275b3U, 0xbd313a953cb13a95U, 0xbe3fff763e9b1342U,
  0x3e8fff99bdec4e1cU, 0x3e73b08d3e9ec47bU, 0x3d13b0d13dec4e1cU, 0xbcb13a953e04ebf0U,
  0x3e313a95bdbfff76U, 0xbd6c4e1c3e5d893aU, 0xbd313a953e1b1342U, 0xbe29d824bd13b0d1U,
  0x3e5d893abe13b0d1U, 0x3d93b0d13e4ec458U, 0x3e2275b33e29d824U, 0xbe6c4e1c3e04ebf0U,
  0x3db13a95be04ebf0U, 0x3ec3b0af3eb89d06U, 0x3cec4e1c3dbfff76U, 0xbdec4e1c3e313a95U,
  0xbcec4e1c3dec4e1cU, 0x3e7b12fd3ddd893aU, 0x3dfb12fdbcb13a95U, 0xbe313a953e2275b3U,
  0x3cec4e1cbe04ebf0U, 0x3d93b0d1bd313a95U, 0x3e1b1342be13b0d1U, 0xbddd893a3e84ebf0U,
  0xbd84ebf0bdb13a95U, 0x3eb89d063e1b1342U, 0xbc6c4e1c3bec4e1cU, 0xbe5626c93e29d824U,
  0x3ead895cbdfb12fdU, 0x3ecec4583ebc4e3eU, 0x3dcec4583e29d824U, 0xbe6c4e1c3ea275b3U,
  0x3dfb12fd3da275b3U, 0x3f04ebf03ee13a72U, 0x3da275b33d84ebf0U, 0xbe9ec47b3efec436U,
  0x3e5d893abd13b0d1U, 0x3e8fff993e5626c9U, 0x3dcec4583e73b08dU, 0xbe1b13423e4761e7U,
  0x3ead895cbd6c4e1cU, 0xbd93b0d13ee4ebabU, 0x3c6c4e1c3e5d893aU, 0xbe4ec45800000000U,
  0x3ea626eb3d13b0d1U, 0xbd6c4e1c3e4ec458U, 0xbd93b0d13e4ec458U, 0xbda275b3bc6c4e1cU,
  0x3dbfff76be29d824U, 0x3cec4e1c3e1b1342U, 0xbc6c4e1c3e7b12fdU, 0xbe84ebf03d13b0d1U,
  0x3e5d893abdfb12fdU, 0x3c6c4e1c3e2275b3U, 0x3da275b3bd13b0d1U, 0xbe9b1342bd6c4e1cU,
  0x3e29d824bdcec458U, 0x3d6c4e1cbd6c4e1cU, 0x3bec4e1cbda275b3U, 0xbe84ebf03bec4e1cU,
  0x3da275b33db13a95U, 0x3dec4e1c3e29d824U, 0x3cb13a95bd13b0d1U, 0xbea626eb3ddd893aU,
  0x3dfb12fdbd84ebf0U, 0x3e7b12fd3dfb12fdU, 0xbc6c4e1c00000000U, 0xbe3fff763d84ebf0U,
  0x3e13b0d1bd93b0d1U, 0x3e13b0d13e813ab7U, 0x3da275b33e13b0d1U, 0xbe389d063ddd893aU,
  0x3da275b3bd6c4e1cU, 0x3d93b0d1bbec4e1cU, 0x3d313a953d84ebf0U, 0xbe2275b33dec4e1cU,
  0x3e4ec458bdbfff76U, 0x3ee13a723e889d28U, 0x3c6c4e1c3d6c4e1cU, 0xbe73b08d3e813ab7U,
  0x3db13a953cb13a95U, 0x3ec761e73e4761e7U, 0x3e5626c93bec4e1cU, 0xbd84ebf03d84ebf0U,
  0x3e04ebf0bda275b3U, 0x3e5626c93e4761e7U, 0x3d93b0d13e313a95U, 0x3c6c4e1c3e2275b3U,
  0x3e889d28bdb13a95U, 0x3d13b0d13e0c4e60U, 0x3d6c4e1c3e389d06U, 0xbe64ebab3cec4e1cU,
  0x3e6c4e1cbdfb12fdU, 0x3ddd893a3db13a95U, 0x3e2275b33cb13a95U, 0xbdcec4583e13b0d1U,
  0x3e3fff76be3fff76U, 0xbcb13a953e13b0d1U, 0x3db13a953e8c4e60U, 0xbe6c4e1c3e29d824U,
  0x3e29d824be889d28U, 0x3e1b13423d93b0d1U, 0x3e389d06bd313a95U, 0xbec761e73e04ebf0U,
  0x3e13b0d1be04ebf0U, 0x3e1b13423e0c4e60U, 0xbcb13a953e5626c9U, 0xbdb13a953cb13a95U,
  0x3d6c4e1cbe04ebf0U, 0x3e389d06bdbfff76U, 0x3e04ebf0bdec4e1cU, 0xbeefff543db13a95U,
  0x3e04ebf03bec4e1cU, 0x3dec4e1c3c6c4e1cU, 0x3e389d0600000000U, 0xbe7b12fd3dfb12fdU,
  0x3d93b0d1bd313a95U, 0x3e13b0d13e0c4e60U, 0x3e1b13423e5d893aU, 0xbe93b0d13eb13a95U,
  0x3ddd893abbec4e1cU, 0x3eb89d063e813ab7U, 0x3cb13a95bbec4e1cU, 0xbe3fff763ef3b08dU,
  0x3dec4e1cbbec4e1cU, 0x3e73b08d3e7b12fdU, 0xbd84ebf03e4761e7U, 0x3e97620a3d313a95U,
  0x3dfb12fdbe04ebf0U, 0x3e9ec47b3dfb12fdU, 0xbd84ebf03e7b12fdU, 0x3e8c4e603d84ebf0U,
  0x3e13b0d13d13b0d1U, 0x3e8fff993da275b3U, 0xbe64ebab3dec4e1cU, 0xbdec4e1c3e0c4e60U,
  0x3d4ec4583da275b3U, 0x3e889d28bcec4e1cU, 0xbe0c4e60bd313a95U, 0x3e5d893a3dfb12fdU,
  0xbcb13a95bdec4e1cU, 0x3e1b13423e389d06U, 0xbcec4e1cbda275b3U, 0x3e3fff763d84ebf0U,
  0x3c6c4e1cbd93b0d1U, 0x3cec4e1c3e6c4e1cU, 0xbe9b13423d4ec458U, 0x3ead895cbcb13a95U,
  0x3e73b08d3cec4e1cU, 0x3e1b1342U, 0xbe97620a3d313a95U, 0x3d4ec4583e6c4e1cU,
  0x3da275b3bdcec458U, 0x3dec4e1c3e5d893aU, 0xbdec4e1c3dfb12fdU, 0x3ec761e73e2275b3U,
  0x3e7b12fd3c6c4e1cU, 0x3e2275b3bcec4e1cU, 0xbe64ebab3ddd893aU, 0x3e93b0d13d4ec458U,
  0x3e5d893a3db13a95U, 0x3e5d893a3e84ebf0U, 0xbd93b0d13cec4e1cU, 0x3cb13a953ddd893aU,
  0x3e7b12fd3d313a95U, 0x3e889d283e6c4e1cU, 0xbdec4e1c3dfb12fdU, 0x3e1b13423d93b0d1U,
  0x3dcec4583d313a95U, 0x3d4ec458bcec4e1cU, 0xbe73b08d3d313a95U, 0x3e389d063e889d28U,
  0x3d4ec458bda275b3U, 0x3ddd893a3dbfff76U, 0xbe6c4e1c3dcec458U, 0x3ddd893a00000000U,
  0xbc6c4e1c3d93b0d1U, 0x3e6c4e1c3e7b12fdU, 0xbe5d893a3e389d06U, 0x3e389d063e313a95U,
  0x3e04ebf0be313a95U, 0x3e64ebab3e5d893aU, 0xbe7b12fd3e3fff76U, 0x3ddd893a3e6c4e1cU,
  0xbcb13a95be0c4e60U, 0x3da275b33db13a95U, 0xbe13b0d13e04ebf0U, 0x3e3fff763e4ec458U,
  0x3e04ebf0bdb13a95U, 0x3db13a95bcb13a95U, 0xbe13b0d1bc6c4e1cU, 0x3e813ab73e29d824U,
  0xbd6c4e1cbd13b0d1U, 0x3dec4e1c3c6c4e1cU, 0xbe93b0d13d84ebf0U, 0x3e7b12fd3d93b0d1U,
  0x3e3fff76bd6c4e1cU, 0x3e4ec4583e73b08dU, 0xbe3fff763e29d824U, 0x3e8c4e603d4ec458U,
  0x3cb13a95bcec4e1cU, 0x3e5626c93e04ebf0U, 0xbdb13a95bd84ebf0U, 0x3dbfff763d4ec458U,
  0x3e2275b3be389d06U, 0xbc6c4e1c3d13b0d1U, 0x3cb13a953e04ebf0U, 0x3ddd893a3e4ec458U,
  0x3e6c4e1cbe29d824U, 0x3e889d2800000000U, 0xbd4ec4583d6c4e1cU, 0x3e13b0d13e04ebf0U,
  0x3e2275b3be04ebf0U, 0x3dfb12fd3da275b3U, 0xbd313a95bcb13a95U, 0x3e5626c93e2275b3U,
  0x3da275b33d6c4e1cU, 0x3dfb12fd00000000U, 0xbe13b0d13e4761e7U, 0x3d4ec4583e4761e7U,
  0x3e389d06bbec4e1cU, 0x3e13b0d13e73b08dU, 0xbe3fff76bda275b3U, 0x3d313a953d6c4e1cU,
  0xbd6c4e1cbdb13a95U, 0x3d4ec4583cb13a95U, 0xbe29d8243d6c4e1cU, 0x3e04ebf03d313a95U,
  0x3e4ec4583c6c4e1cU, 0x3d313a953e2275b3U, 0xbe6c4e1c3d13b0d1U, 0x3e813ab7bd13b0d1U,
  0x3e7b12fd3bec4e1cU, 0x3e8c4e603e73b08dU, 0xbe64ebab3d313a95U, 0x3eb4ebcd3db13a95U,
  0x3e889d283dec4e1cU, 0x3e93b0d13e64ebabU, 0xbe73b08d3e4ec458U, 0x3e7b12fd3dcec458U,
  0x3d6c4e1cbd93b0d1U, 0x3e13b0d13e6c4e1cU, 0xbe7b12fd3db13a95U, 0x3ebfff763e5d893aU,
  0x3ddd893abda275b3U, 0x3e04ebf03e6c4e1cU, 0xbe4ec458bd6c4e1cU, 0x3eb4ebcd3e313a95U,
  0x3db13a95bdbfff76U, 0x3dcec4583da275b3U, 0xbe1b13423e5626c9U, 0x3e64ebab3e4ec458U,
  0xbd313a953c6c4e1cU, 0x3dfb12fdbd313a95U, 0xbe8c4e603d313a95U, 0x3e04ebf0bc6c4e1cU,
  0x3ddd893a3d84ebf0U, 0x3e13b0d13e813ab7U, 0xbe13b0d13ddd893aU, 0x3ddd893abcb13a95U,
  0x3d84ebf03d4ec458U, 0x3e0c4e603dec4e1cU, 0xbdb13a953dcec458U, 0x3e6c4e1c3cec4e1cU,
  0x3e5d893abdbfff76U, 0x3e3fff763e5d893aU, 0xbe8fff993e3fff76U, 0x3e3fff763d13b0d1U,
  0x3e7b12fdbd93b0d1U, 0x3e7b12fd3d6c4e1cU, 0xbe29d8243e4ec458U, 0x3e389d063d93b0d1U,
  0x3d93b0d1bdcec458U, 0x3d84ebf03e4761e7U, 0xbe889d28bd84ebf0U, 0x3bec4e1c3e29d824U,
  0x3e04ebf0be389d06U, 0x3d313a953e0c4e60U, 0xbe0c4e603e4761e7U, 0x3e8fff993da275b3U,
  0xbdcec458be5d893aU, 0x3e1b13423dec4e1cU, 0xbdb13a953d4ec458U, 0x3e889d28bcb13a95U,
  0x3e2275b33da275b3U, 0x3e73b08dbcb13a95U, 0xbe13b0d13d13b0d1U, 0x3e9ec47b3e5626c9U,
  0x3e4ec4583da275b3U, 0x3d13b0d13e4761e7U, 0xbe313a95bc6c4e1cU, 0x3ddd893a3e4ec458U,
  0xbdb13a95be04ebf0U, 0xbcb13a953e389d06U, 0xbe4761e7bd13b0d1U, 0x3e64ebab3e4761e7U,
  0x3da275b3bbec4e1cU, 0x3dfb12fd3dec4e1cU, 0xbd6c4e1c3cec4e1cU, 0x3dfb12fd3e5626c9U,
  0x3f0e26fdbda275b3U, 0x3e9b13423f04ebf0U, 0xbd313a953e84ebf0U, 0xbe4761e73e5d893aU,
  0x3e889d28be04ebf0U, 0x3e1b13423ea9d824U, 0x3da275b33cec4e1cU, 0xbe389d063e04ebf0U,
  0x3ebfff76bbec4e1cU, 0x3eb13a953e4761e7U, 0xbda275b33e5626c9U, 0xbd93b0d13e3fff76U,
  0x3e0c4e60bd6c4e1cU, 0x3e0c4e603ecb1320U, 0x3db13a953e04ebf0U, 0xbf013ab73dfb12fdU,
  0x3d84ebf03da275b3U, 0x3e4ec4583ea275b3U, 0x3e1b13423dbfff76U, 0xbe13b0d13e6c4e1cU,
  0x3e8fff99bdec4e1cU, 0x3e13b0d13e84ebf0U, 0x3e0c4e60bda275b3U, 0xbea9d8243e3fff76U,
  0x3ec3b0afbbec4e1cU, 0x3e93b0d13ea9d824U, 0xbd13b0d13e1b1342U, 0xbe29d8243ea9d824U,
  0x3e9ec47b3da275b3U, 0x3e93b0d13e3fff76U, 0x3ddd893a3e5d893aU, 0xbeefff543e93b0d1U,
  0x3ecec458bdfb12fdU, 0x3ef761c53e93b0d1U, 0x3da275b3bd313a95U, 0xbe64ebab3e889d28U,
  0x3ec761e7be04ebf0U, 0x3ebfff763e29d824U, 0x3ddd893a3e313a95U, 0xbed626c93e5d893aU,
  0x3ec761e7bd4ec458U, 0x3efb12fd3db13a95U, 0x3d84ebf03dcec458U, 0xbe5d893a3e93b0d1U,
  0x3e3fff763d93b0d1U, 0x3ea626eb3e73b08dU, 0xbbec4e1c3e4761e7U, 0xbd313a953ea626ebU,
  0x3e4ec458be5626c9U, 0x3e6c4e1c3e7b12fdU, 0xbcec4e1c3e813ab7U, 0xbea275b33e8fff99U,
  0x3e9b1342bd6c4e1cU, 0x3eb89d063e73b08dU, 0x3d13b0d13e813ab7U, 0xbe5626c93e29d824U,
  0x3ea626ebbd4ec458U, 0x3e889d283e3fff76U, 0xbd84ebf03cb13a95U, 0xbe8c4e603e5626c9U,
  0x3e2275b33cb13a95U, 0x3e813ab73e73b08dU, 0x3bec4e1c3dbfff76U, 0xbe13b0d13e1b1342U,
  0x3e389d06be1b1342U, 0x3ea275b33e813ab7U, 0x3bec4e1c3e4761e7U, 0xbe9ec47b3dbfff76U,
  0x3e889d28bdcec458U, 0x3ebfff763ddd893aU, 0xbd6c4e1cbc6c4e1cU, 0xbdbfff763e93b0d1U,
  0xbdb13a95bc6c4e1cU, 0x3ed626c93d13b0d1U, 0x3e04ebf0bd84ebf0U, 0xbe813ab73e9b1342U,
  0x3e13b0d13d13b0d1U, 0x3e813ab73e9b1342U, 0x3e2275b33ddd893aU, 0xbe84ebf03ead895cU,
  0x3e6c4e1c3cb13a95U, 0x3f0313533ea626ebU, 0x3c6c4e1c3e84ebf0U, 0xbe9ec47b3f0c4e60U,
  0x3eb89d063bec4e1cU, 0x3f27ff883ee4ebabU, 0x3e2275b3U, 0xbe3fff763ecec458U,
  0xbf389d06bcec4e1cU, 0xbebfff76bf57ff65U, 0xbd84ebf0bf089d28U, 0x3ead895cbee13a72U,
  0xbeefff54bdfb12fdU, 0xbe13b0d1bf493a84U, 0xbdbfff76be7b12fdU, 0x3d6c4e1cbecb1320U,
  0xbead895c3cb13a95U, 0xbdec4e1cbf0e26fdU, 0x3e04ebf0be889d28U, 0x3e4ec458bee4ebabU,
  0xbe7b12fdbdec4e1cU, 0xbf06c48cbf27ff88U, 0x3e389d06be9b1342U, 0x3ec3b0afbeb4ebcdU,
  0xbedd893abda275b3U, 0xbf15896dbecec458U, 0x3d84ebf0be8c4e60U, 0x3ee4ebabbecec458U,
  0xbe29d824bdec4e1cU, 0xbf2d895cbf193aa6U, 0x3dfb12fdbe6c4e1cU, 0x3e2275b3bf06c48cU,
  0xbe84ebf03e313a95U, 0xbeb4ebcdbed9d801U, 0x3bec4e1cbdfb12fdU, 0xbdfb12fdU,
  0xbea626ebbe29d824U, 0xbf1ec47bbeec4e1cU, 0xbd13b0d13cec4e1cU, 0x3e0c4e60bead895cU,
  0xbe64ebab3dbfff76U, 0xbf1ec47bbf17620aU, 0xbd84ebf0be9b1342U, 0x3d313a95bec3b0afU,
  0xbefb12fd3e29d824U, 0xbf2bb0c0bf193aa6U, 0x3d84ebf0beb4ebcdU, 0x3e5d893abf2bb0c0U,
  0xbe7b12fd3db13a95U, 0xbf27ff88bee89ce3U, 0x3d6c4e1cbd313a95U, 0x3e389d06bf527591U,
  0xbee89ce3bd84ebf0U, 0xbf2bb0c0bf2f61f9U, 0x3d6c4e1cbe4ec458U, 0x3dbfff76bf613a72U,
  0xbe9ec47bbc6c4e1cU, 0xbf15896dbf3a75a2U, 0x3d13b0d1be5626c9U, 0xbc6c4e1cbf3fff76U,
  0xbecec4583e2275b3U, 0xbf013ab7bf193aa6U, 0x3ddd893abe4ec458U, 0x3e1b1342bf193aa6U,
  0xbe889d28bda275b3U, 0xbe64ebabbf43b0afU, 0x3da275b3be3fff76U, 0xbd4ec458be389d06U,
  0xbe5d893a3e2275b3U, 0xbef761c5beec4e1cU, 0x3d13b0d1be813ab7U, 0x3e3fff76bed27591U,
  0xbe2275b33e313a95U, 0xbf2626ebbf27ff88U, 0x3e04ebf0bd313a95U, 0x3cb13a95bf27ff88U,
  0xbe7b12fdbd93b0d1U, 0xbf34ebcdbf27ff88U, 0xbd13b0d1bd84ebf0U, 0x3d84ebf0bf2f61f9U,
  0xbe97620abdbfff76U, 0xbee4ebabbebfff76U, 0x3e389d06bdec4e1cU, 0x3e5626c9befb12fdU,
  0xbea626ebbd13b0d1U, 0xbefec436bea9d824U, 0x3d313a953da275b3U, 0x3e04ebf0beec4e1cU,
  0xbe9b13423c6c4e1cU, 0xbf41d813bf1cebdeU, 0x3d4ec458bdbfff76U, 0x3ed27591bf1b1342U,
  0xbe64ebabbdbfff76U, 0xbf5d893abf2626ebU, 0x3dfb12fdbcb13a95U, 0x3e889d28bf544e2dU,
  0x3f06c48cbbec4e1cU, 0x3edd893a3ef3b08dU, 0x3d84ebf03ea275b3U, 0x3d93b0d13e8c4e60U,
  0x3ecb1320bd313a95U, 0x3e313a953efb12fdU, 0xbc6c4e1c3e84ebf0U, 0x3bec4e1c3e1b1342U,
  0x3ecb1320bd6c4e1cU, 0x3d13b0d13ebfff76U, 0x3bec4e1c3e3fff76U, 0xbd13b0d13e813ab7U,
  0x3ead895c3e04ebf0U, 0x3e9b13423e0c4e60U, 0x3ddd893a3e97620aU, 0xbe29d824bd6c4e1cU,
  0xbcec4e1c3d13b0d1U, 0x3bec4e1c3e97620aU, 0x3ddd893a3e313a95U, 0xbe7b12fdbd6c4e1cU,
  0x3d4ec458bdfb12fdU, 0x3e64ebab3e7b12fdU, 0x3bec4e1c3c6c4e1cU, 0xbdb13a953e9b1342U,
  0x3e9ec47bbbec4e1cU, 0x3dbfff763dcec458U, 0x3cb13a953d6c4e1cU, 0x3e6c4e1c3dec4e1cU,
  0x3eec4e1c3d84ebf0U, 0x3e4ec4583ec3b0afU, 0x3d6c4e1c3e889d28U, 0x3e5626c93e97620aU,
  0x3d6c4e1c3bec4e1cU, 0x3e813ab73ea275b3U, 0x3e0c4e603d84ebf0U, 0x3dfb12fd3eb89d06U,
  0x3d93b0d1be04ebf0U, 0x3e2275b33eb89d06U, 0x3d13b0d13dfb12fdU, 0xbdb13a953e5d893aU,
  0x3e889d28be2275b3U, 0x3ee13a723e97620aU, 0x3d6c4e1c3d313a95U, 0x3e4ec4583ed27591U,
  0x3e0c4e603e0c4e60U, 0x3eb4ebcd3ddd893aU, 0x3dfb12fdU, 0x3e1b13423e5626c9U,
  0x3ebc4e3ebd13b0d1U, 0x3e29d8243e813ab7U, 0x3dec4e1c3c6c4e1cU, 0x3dec4e1c3e2275b3U,
  0x3e889d283e0c4e60U, 0x3e6c4e1c3ed27591U, 0x3bec4e1c3e29d824U, 0x3e73b08d3eb89d06U,
  0x3e5d893abda275b3U, 0x3e04ebf03ed27591U, 0xbd4ec4583dcec458U, 0x3bec4e1c3e04ebf0U,
  0x3d313a953d6c4e1cU, 0x3e1b13423e4761e7U, 0x3d313a953d84ebf0U, 0x3d6c4e1c3e889d28U,
  0x3e389d063d84ebf0U, 0x3e2275b33e6c4e1cU, 0x3d6c4e1c3db13a95U, 0x3d84ebf03db13a95U,
  0x3dfb12fdbda275b3U, 0x3e3fff763ddd893aU, 0x3ddd893a3e1b1342U, 0x3e2275b33dcec458U,
  0xbd4ec458bcec4e1cU, 0x3e7b12fd3e64ebabU, 0x3d84ebf0bdec4e1cU, 0x3dbfff763ecec458U,
  0xbd13b0d13cec4e1cU, 0x3e0c4e603d6c4e1cU, 0x3db13a95U, 0xbdb13a953e813ab7U,
  0x3e5d893abcec4e1cU, 0x3ea626eb3e97620aU, 0x3cec4e1c3e813ab7U, 0x3d93b0d13f031353U,
  0x3ea9d8243d313a95U, 0x3ee89ce33ea275b3U, 0x3bec4e1c3cb13a95U, 0x3bec4e1c3f1cebdeU,
  0xbe1b1342be04ebf0U, 0xbdb13a95bec761e7U, 0x3c6c4e1c3d6c4e1cU, 0x3c6c4e1cbd313a95U,
  0xbe13b0d1bdec4e1cU, 0x3dfb12fdbe04ebf0U, 0x3e73b08dbdcec458U, 0x3dcec4583e389d06U,
  0x3d13b0d13d4ec458U, 0x3e5626c9bddd893aU, 0x3e64ebab3cec4e1cU, 0x3dfb12fd3e0c4e60U,
  0xbd313a95bd4ec458U, 0xbdcec4583c6c4e1cU, 0x3e97620abd13b0d1U, 0xbcec4e1c3e6c4e1cU,
  0x3e313a953d93b0d1U, 0x3e29d824bd313a95U, 0x3dec4e1c3db13a95U, 0xbd84ebf03e4761e7U,
  0xbd313a953db13a95U, 0xbcec4e1cbdbfff76U, 0x3e73b08d3d93b0d1U, 0x3d313a95bc6c4e1cU,
  0xbcec4e1c3e13b0d1U, 0x3c6c4e1cbd93b0d1U, 0x3d6c4e1c3dbfff76U, 0xbe313a95bda275b3U,
  0xbdec4e1c3dec4e1cU, 0xbe0c4e60be1b1342U, 0x3e29d8243cec4e1cU, 0xbe64ebab3c6c4e1cU,
  0xbddd893a3e13b0d1U, 0xbd6c4e1cbd13b0d1U, 0x3d93b0d1bbec4e1cU, 0xbe0c4e603d313a95U,
  0xbcb13a95bdb13a95U, 0xbcec4e1c3d93b0d1U, 0x3e04ebf03e04ebf0U, 0x3d93b0d13c6c4e1cU,
  0x3dfb12fdbd313a95U, 0xbe4761e7bcb13a95U, 0x3d93b0d13d6c4e1cU, 0xbe4ec458be04ebf0U,
  0xbddd893abcec4e1cU, 0x3d6c4e1c3cec4e1cU, 0x3cb13a9500000000U, 0x3ddd893a3dec4e1cU,
  0xbdec4e1cU, 0xbd84ebf0bdb13a95U, 0x3e7b12fdbd84ebf0U, 0xbdfb12fdbe1b1342U,
  0x3dcec458bd313a95U, 0x3dcec458bda275b3U, 0x3e73b08d3e04ebf0U, 0xbdec4e1c3dfb12fdU,
  0x3d313a95bd4ec458U, 0xbda275b3bd93b0d1U, 0x3e64ebab3e2275b3U, 0x3dec4e1c3e0c4e60U,
  0x3da275b33bec4e1cU, 0xbd4ec4583dcec458U, 0x3e7b12fdbd93b0d1U, 0x3e1b1342bda275b3U,
  0x3da275b33e04ebf0U, 0x3dbfff76be04ebf0U, 0x3e73b08d00000000U, 0x3cb13a953db13a95U,
  0x3c6c4e1cbdcec458U, 0x3e3fff763dec4e1cU, 0x3e313a95bd4ec458U, 0xbdb13a953e3fff76U,
  0x3e1b134200000000U, 0x3d6c4e1c3e3fff76U, 0x3e813ab73cec4e1cU, 0xbda275b3bcec4e1cU,
  0xbd313a9500000000U, 0x3cec4e1c3dfb12fdU, 0x3c6c4e1c3e73b08dU, 0xbe2275b3bd313a95U,
  0xbe64ebabbd313a95U, 0xbe889d28be5626c9U, 0x3cb13a95be04ebf0U, 0x3dbfff7600000000U,
  0xbe3fff763d6c4e1cU, 0xbe93b0d1be29d824U, 0x3d4ec458be13b0d1U, 0xbe1b1342be93b0d1U,
  0xbdcec4583dec4e1cU, 0x3d313a95be4761e7U, 0x3cec4e1c3d313a95U, 0xbdfb12fdbdb13a95U,
  0xbda275b33e04ebf0U, 0xbd313a95bbec4e1cU, 0x3dfb12fdbda275b3U, 0x3bec4e1c3db13a95U,
  0xbe2275b300000000U, 0x3dbfff763e0c4e60U, 0x3e97620a3dbfff76U, 0x3e4761e7bdb13a95U,
  0xbddd893a3dbfff76U, 0x3d313a95bd84ebf0U, 0x3d313a95bd13b0d1U, 0xbd13b0d13d6c4e1cU,
  0x3d93b0d1bdec4e1cU, 0x3d313a953e3fff76U, 0x3e313a953dec4e1cU, 0xbdbfff76bcec4e1cU,
  0x3dec4e1cbd4ec458U, 0x3d6c4e1cbdbfff76U, 0x3db13a953d84ebf0U, 0x3dcec4583e1b1342U,
  0xbbec4e1c3bec4e1cU, 0xbd93b0d1bd4ec458U, 0x3e4761e7be1b1342U, 0xbe389d06bda275b3U,
  0x3d13b0d13cec4e1cU, 0x3d313a953d13b0d1U, 0x3e97620a3dfb12fdU, 0xbe6c4e1cbe389d06U,
  0x3d13b0d13dbfff76U, 0xbd93b0d1bcb13a95U, 0x3e889d283e13b0d1U, 0x3d313a953cec4e1cU,
  0x3ddd893a3da275b3U, 0xbe0c4e603d93b0d1U, 0x3e6c4e1cbcec4e1cU, 0xbdb13a953dbfff76U,
  0xbdfb12fd00000000U, 0xbe313a95bd4ec458U, 0x3e4761e73bec4e1cU, 0x3cec4e1cbdbfff76U,
  0xbd313a953d4ec458U, 0xbe389d063dbfff76U, 0x3e4ec4583d313a95U, 0x3d13b0d1bd13b0d1U,
  0x3d313a95bcec4e1cU, 0xbd313a95bd93b0d1U, 0x3e5626c93bec4e1cU, 0xbdfb12fd3d4ec458U,
  0xbcb13a953d6c4e1cU, 0x3dec4e1cbe4ec458U, 0x3e73b08d3e04ebf0U, 0xbda275b33da275b3U,
  0xbd93b0d1bd84ebf0U, 0xbdbfff763c6c4e1cU, 0x3e389d06bd93b0d1U, 0x3d313a95bd13b0d1U,
  0xbd4ec4583e6c4e1cU, 0x3c6c4e1cbcec4e1cU, 0x3e0c4e60bdbfff76U, 0x3d313a953cb13a95U,
  0xbbec4e1cU, 0x3db13a95U, 0x3c6c4e1cbd93b0d1U, 0x3cec4e1c3d84ebf0U,
  0xbcb13a95bdbfff76U, 0x3ddd893abd6c4e1cU, 0x3e73b08d3d313a95U, 0xbdfb12fd3dec4e1cU,
  0x3d84ebf03dfb12fdU, 0xbd84ebf03bec4e1cU, 0x3d313a95bd13b0d1U, 0xbe04ebf03d13b0d1U,
  0x3cec4e1cbdcec458U, 0x3e13b0d13da275b3U, 0x3e64ebabbd13b0d1U, 0x3d313a953bec4e1cU,
  0xbd6c4e1c3d313a95U, 0xbe389d06bbec4e1cU, 0x3e389d063ddd893aU, 0xbd13b0d13d4ec458U,
  0xbdec4e1c3e0c4e60U, 0xbe5626c9bd6c4e1cU, 0x3e2275b3be1b1342U, 0x3bec4e1cbe3fff76U,
  0xbdec4e1cbdcec458U, 0x3d4ec458bd4ec458U, 0x3e04ebf0be0c4e60U, 0x3dfb12fd3e1b1342U,
  0xbe4761e7bdbfff76U, 0x3db13a953d6c4e1cU, 0x3e6c4e1c3d13b0d1U, 0x3da275b33d84ebf0U,
  0x3cb13a95bddd893aU, 0x3d13b0d1bc6c4e1cU, 0x3eb13a953d13b0d1U, 0x3dbfff76bd6c4e1cU,
  0x3ddd893a3e0c4e60U, 0x3bec4e1c3dcec458U, 0x3e1b1342bbec4e1cU, 0xbd93b0d13dcec458U,
  0x3d13b0d1bbec4e1cU, 0x3cec4e1c3da275b3U, 0x3e2275b33e0c4e60U, 0x3e04ebf03cb13a95U,
  0xbd13b0d13d84ebf0U, 0x3db13a953c6c4e1cU, 0x3e97620abcec4e1cU, 0xbcb13a95bd93b0d1U,
  0xbd93b0d13e29d824U, 0x3db13a95be04ebf0U, 0x3e3fff76bd4ec458U, 0xbdec4e1c3cb13a95U,
  0xbbec4e1c3d13b0d1U, 0xbc6c4e1cU, 0x3e6c4e1c3e389d06U, 0xbe29d824be04ebf0U,
  0x3cb13a95bd84ebf0U, 0xbe2275b3bdb13a95U, 0x3e13b0d1bbec4e1cU, 0xbbec4e1cbd93b0d1U,
  0x3dbfff76U, 0xbdbfff76be3fff76U, 0x3dfb12fdbd6c4e1cU, 0xbbec4e1cbbec4e1cU,
  0xbda275b33e0c4e60U, 0xbe2275b3bd13b0d1U, 0x3e0c4e603ddd893aU, 0xbcb13a95be04ebf0U,
  0xbd84ebf03e0c4e60U, 0xbd93b0d1be2275b3U, 0x3e0c4e60bd13b0d1U, 0x3dec4e1cbbec4e1cU,
  0xbd84ebf0bd313a95U, 0x3e29d8243dfb12fdU, 0x3e3fff763cb13a95U, 0xbe29d824bd6c4e1cU,
  0xbddd893a3d84ebf0U, 0x3d84ebf0bc6c4e1cU, 0x3e813ab7bd84ebf0U, 0xbbec4e1cbda275b3U,
  0x3da275b3bc6c4e1cU, 0x3ddd893abd93b0d1U, 0x3e389d063d93b0d1U, 0xbe04ebf0bd13b0d1U,
  0xbbec4e1c3dcec458U, 0x3cec4e1c3e1b1342U, 0x3d93b0d1bda275b3U, 0x3dec4e1cbdbfff76U,
  0xbdcec45800000000U, 0x3dcec458U, 0x3e3fff763d6c4e1cU, 0xbe2275b3be04ebf0U,
  0x3d84ebf03d84ebf0U, 0xbd93b0d13d84ebf0U, 0x3e1b13423da275b3U, 0xbcb13a953d313a95U,
  0x3dcec4583e04ebf0U, 0xbcb13a953e3fff76U, 0x3e93b0d13dcec458U, 0x3d13b0d1be04ebf0U,
  0x3bec4e1cbd84ebf0U, 0x3e13b0d13db13a95U, 0x3e6c4e1c3dec4e1cU, 0xbddd893abd4ec458U,
  0xbd13b0d13d13b0d1U, 0xbe13b0d1be3fff76U, 0x3d13b0d13d313a95U, 0xbe13b0d1bda275b3U,
  0xbcec4e1cbd84ebf0U, 0xbdfb12fdbe97620aU, 0x3ea626eb3d13b0d1U, 0x3e13b0d1be29d824U,
  0x3dcec458bddd893aU, 0x3d84ebf0bd84ebf0U, 0x3da275b3bcec4e1cU, 0xbe5d893abcb13a95U,
  0xbdb13a95bc6c4e1cU, 0xbcb13a95bd84ebf0U, 0x3e73b08d3d84ebf0U, 0xbe1b13423d4ec458U,
  0x3c6c4e1cbd84ebf0U, 0x3d13b0d13dcec458U, 0x3e8fff99bd4ec458U, 0x3c6c4e1cbddd893aU,
  0xbda275b3bd6c4e1cU, 0x3dfb12fd3bec4e1cU, 0x3e1b13423d13b0d1U, 0xbe5626c9bdcec458U,
  0xbda275b3bd313a95U, 0xbd6c4e1c3c6c4e1cU, 0x3e389d063bec4e1cU, 0xbdec4e1cbd13b0d1U,
  0xbbec4e1c3d4ec458U, 0xbd93b0d13dec4e1cU, 0x3ea626ebbcec4e1cU, 0xbe7b12fd3cb13a95U,
  0xbdb13a953d6c4e1cU, 0xbdbfff76bdb13a95U, 0x3d93b0d1bd4ec458U, 0xbe389d06bd84ebf0U,
  0xbd313a95bd13b0d1U, 0x3cb13a95bdfb12fdU, 0x3e13b0d13e1b1342U, 0xbe1b1342bd93b0d1U,
  0x3e1b1342be4761e7U, 0xbd6c4e1cbd313a95U, 0x3e2275b3bd84ebf0U, 0xbe4ec4583db13a95U,
  0x3dec4e1c3d4ec458U, 0x3cec4e1c3ddd893aU, 0x3e4761e7bbec4e1cU, 0xbe3fff763bec4e1cU,
  0xbd4ec458bd84ebf0U, 0xbd313a953dbfff76U, 0x3e8c4e60bc6c4e1cU, 0x3d13b0d1bdb13a95U,
  0x3dec4e1cbe73b08dU, 0x3bec4e1cbd4ec458U, 0x3dbfff763d4ec458U, 0x3d313a953d93b0d1U,
  0x3cb13a953cb13a95U, 0xbd93b0d1bc6c4e1cU, 0x3da275b33e0c4e60U, 0xbe6c4e1c3dcec458U,
  0xbdec4e1cbe13b0d1U, 0x3dcec4583d4ec458U, 0x3dec4e1c3da275b3U, 0xbe0c4e60bbec4e1cU,
  0xbd6c4e1c3d84ebf0U, 0x3db13a95be29d824U, 0x3e13b0d13e389d06U, 0xbc6c4e1cbdb13a95U,
  0x3c6c4e1c3d13b0d1U, 0x3da275b33e2275b3U, 0x3ea275b33dcec458U, 0xbdfb12fd3ddd893aU,
  0x3dcec458be7b12fdU, 0x3d13b0d13bec4e1cU, 0x3e3fff76bd13b0d1U, 0xbe389d06bd84ebf0U,
  0x3d6c4e1cbdbfff76U, 0xbd84ebf0bd6c4e1cU, 0x3e8c4e603bec4e1cU, 0xbdfb12fd3e1b1342U,
  0xbdb13a95bcb13a95U, 0x3d6c4e1cbd4ec458U, 0x3e04ebf03dbfff76U, 0xbe5d893abd313a95U,
  0x3d4ec458bd84ebf0U, 0x3db13a953dec4e1cU, 0x3e9ec47bbd4ec458U, 0xbe389d06bd13b0d1U,
  0x3d93b0d1bdec4e1cU, 0x3bec4e1cbe4761e7U, 0x3e13b0d13cec4e1cU, 0xbe04ebf0bcb13a95U,
  0xbddd893abd93b0d1U, 0xbe13b0d1be04ebf0U, 0x3e4761e73dec4e1cU, 0xbdec4e1cbddd893aU,
  0x3f0c4e603d4ec458U, 0x3e97620a3f2bb0c0U, 0x3bec4e1c3e64ebabU, 0xbe64ebab3ee4ebabU,
  0x3edd893a00000000U, 0x3e4761e73eefff54U, 0x3d313a953e29d824U, 0xbe04ebf03ddd893aU,
  0x3ec761e73bec4e1cU, 0x3e1b13423e73b08dU, 0x3da275b3U, 0xbe1b13423ead895cU,
  0x3e5626c93da275b3U, 0x3eb4ebcd3e9ec47bU, 0x3e29d8243e5626c9U, 0xbe1b1342bd13b0d1U,
  0x3bec4e1cbdec4e1cU, 0x3bec4e1c3e97620aU, 0x3d84ebf03cec4e1cU, 0xbd6c4e1c3e5626c9U,
  0x3bec4e1cbdfb12fdU, 0x3ec3b0af3e5626c9U, 0x3e0c4e6000000000U, 0xbe73b08d3e313a95U,
  0x3eb89d06bdbfff76U, 0x3ebfff763e5626c9U, 0x3bec4e1c3e0c4e60U, 0xbda275b33dbfff76U,
  0x3f089d28bd4ec458U, 0x3e73b08d3eb13a95U, 0x3e813ab7U, 0x3d84ebf03e73b08dU,
  0x3e813ab73ddd893aU, 0x3eb13a953ed9d801U, 0x3d93b0d13e4ec458U, 0xbddd893a3e3fff76U,
  0x3e84ebf0be04ebf0U, 0x3ea9d8243e97620aU, 0x3da275b33e1b1342U, 0xbe389d063ea626ebU,
  0x3ddd893abdec4e1cU, 0x3ecb13203e93b0d1U, 0xbd13b0d13db13a95U, 0xbda275b33efec436U,
  0x3e7b12fdbdfb12fdU, 0x3ea275b33e9ec47bU, 0x3e13b0d13e4ec458U, 0x3cb13a953e6c4e1cU,
  0x3ec761e7bc6c4e1cU, 0x3e8fff993e313a95U, 0x3cec4e1c3e889d28U, 0x3e389d063ea275b3U,
  0x3eb4ebcdbd84ebf0U, 0x3ead895c3efb12fdU, 0x3d4ec4583db13a95U, 0x3d313a953e813ab7U,
  0x3ed27591bda275b3U, 0x3e04ebf03e8c4e60U, 0xbd84ebf03d93b0d1U, 0xbcec4e1c3e0c4e60U,
  0x3eb89d063d13b0d1U, 0x3bec4e1c3e5d893aU, 0x3ddd893a3e8fff99U, 0x3dbfff763ea9d824U,
  0x3ea275b3bda275b3U, 0x3f013ab73e6c4e1cU, 0x3d13b0d13e73b08dU, 0x3bec4e1c3e8fff99U,
  0x3da275b3bddd893aU, 0x3ddd893a3e8c4e60U, 0xbcb13a953e7b12fdU, 0xbdec4e1c3e5d893aU,
  0xbdcec458bdec4e1cU, 0x3e5d893a3dec4e1cU, 0x3e1b1342bbec4e1cU, 0x3d13b0d13efec436U,
  0x3e7b12fd3d84ebf0U, 0x3ec3b0af3e1b1342U, 0x3dbfff7600000000U, 0xbe13b0d13e9b1342U,
  0x3e389d063cec4e1cU, 0x3efec4363ea626ebU, 0x3ddd893a3d313a95U, 0x3d313a953f089d28U,
  0x3e93b0d13d13b0d1U, 0x3f34ebcd3ec3b0afU, 0x3dbfff763ea275b3U, 0xbe04ebf03f2d895cU,
  0xbf17620a3cec4e1cU, 0xbf2bb0c0bf1cebdeU, 0x3cec4e1cbe93b0d1U, 0x3cb13a95becb1320U,
  0xbeb13a953da275b3U, 0xbe73b08dbf17620aU, 0x3dbfff76bdcec458U, 0x3e4761e7be813ab7U,
  0xbe889d28bd313a95U, 0xbecb1320bebfff76U, 0x3c6c4e1cbe73b08dU, 0x3dec4e1cbea9d824U,
  0xbed9d801bdcec458U, 0xbf2626ebbf031353U, 0x3cec4e1cbcb13a95U, 0x3e29d824bef3b08dU,
  0xbe5626c93c6c4e1cU, 0xbf29d824beb4ebcdU, 0x3dec4e1cbddd893aU, 0x3e4ec458bf1b1342U,
  0xbe8fff993dec4e1cU, 0xbefec436bf0e26fdU, 0x3cec4e1cbe13b0d1U, 0x3dec4e1cbee89ce3U,
  0xbe1b1342bd93b0d1U, 0xbe9ec47bbeb89d06U, 0x3d93b0d1bdbfff76U, 0xbdb13a95bed626c9U,
  0xbe9b13423e13b0d1U, 0xbef761c5bef761c5U, 0x3d93b0d1be2275b3U, 0x3ddd893abeb4ebcdU,
  0xbdec4e1cbda275b3U, 0xbf1cebdebeb13a95U, 0xbd313a95be5626c9U, 0x3cb13a95bedd893aU,
  0xbebc4e3e3e2275b3U, 0xbf1cebdebf2bb0c0U, 0xbd4ec458bd13b0d1U, 0x3e13b0d1bf29d824U,
  0xbe8c4e603e5d893aU, 0xbf0e26fdbeefff54U, 0x3c6c4e1cbe4ec458U, 0xbe13b0d1bf34ebcdU,
  0xbe84ebf0bcec4e1cU, 0xbf11d835bf2626ebU, 0x3e04ebf0be8fff99U, 0x3d93b0d1bf34ebcdU,
  0xbecb13203e5d893aU, 0xbf209d17bedd893aU, 0x3e13b0d1be13b0d1U, 0xbf11d835U,
  0xbe8fff993ddd893aU, 0xbf1cebdebf313a95U, 0xbd313a95bd6c4e1cU, 0x3bec4e1cbf1cebdeU,
  0xbead895c3ddd893aU, 0xbf1ec47bbf36c469U, 0x3ddd893abe84ebf0U, 0x3e13b0d1bee4ebabU,
  0xbe29d8243e2275b3U, 0xbf089d28bef3b08dU, 0x3e0c4e60bd313a95U, 0x3dec4e1cbedd893aU,
  0xbe04ebf03e13b0d1U, 0xbf1ec47bbecec458U, 0xbd13b0d1bbec4e1cU, 0xbd84ebf0beefff54U,
  0xbe29d824be04ebf0U, 0xbf36c469bed9d801U, 0x3dcec458be4ec458U, 0x3cb13a95bf04ebf0U,
  0xbd313a95bd4ec458U, 0xbf331331bea626ebU, 0x3d6c4e1cbdb13a95U, 0x3dec4e1cbeefff54U,
  0x3cec4e1cbd313a95U, 0xbf06c48cbf031353U, 0xbd6c4e1cbda275b3U, 0x3d6c4e1cbf013ab7U,
  0xbdbfff76be04ebf0U, 0xbecb1320bf04ebf0U, 0x3ddd893abe13b0d1U, 0x3e84ebf0bf089d28U,
  0xbea9d824bd4ec458U, 0xbf63130fbf11d835U, 0x3d4ec45800000000U, 0x3e0c4e60bf34ebcdU,
  0x3e6c4e1cbcb13a95U, 0x3e29d8243e4ec458U, 0xbe9b13423db13a95U, 0x3ebc4e3e3e313a95U,
  0x3d6c4e1cbd6c4e1cU, 0x3e1b13423cb13a95U, 0xbdbfff763e389d06U, 0x3e5d893a3ddd893aU,
  0x3e5d893a3cec4e1cU, 0x3e5626c93e6c4e1cU, 0xbd6c4e1c3ddd893aU, 0x3ddd893a3d6c4e1cU,
  0x3d6c4e1c3dec4e1cU, 0x3d93b0d13e889d28U, 0xbdec4e1cbbec4e1cU, 0x3ddd893a3e6c4e1cU,
  0x3e29d82400000000U, 0x3e3fff763db13a95U, 0xbe4ec4583e4ec458U, 0x3e5d893abbec4e1cU,
  0x3ddd893abe4ec458U, 0x3ddd893a3d4ec458U, 0xbdec4e1c3dcec458U, 0x3e813ab73e64ebabU,
  0x3dbfff76be0c4e60U, 0x3e1b13423d313a95U, 0xbe64ebab3db13a95U, 0x3ec3b0af3d4ec458U,
  0x3dec4e1c3bec4e1cU, 0x3d13b0d13e8fff99U, 0xbe1b1342bc6c4e1cU, 0x3ecec4583db13a95U,
  0x3d6c4e1c00000000U, 0x3e13b0d13d13b0d1U, 0xbdcec4583dcec458U, 0x3e97620a3dbfff76U,
  0xbd4ec458bd84ebf0U, 0x3e889d283e2275b3U, 0xbdbfff763e6c4e1cU, 0x3e73b08d3e73b08dU,
  0xbc6c4e1c00000000U, 0x3d93b0d13e5626c9U, 0xbe97620a3e2275b3U, 0x3eb4ebcd3d93b0d1U,
  0x3e13b0d1be3fff76U, 0x3e3fff763da275b3U, 0xbe5626c93e5626c9U, 0xbd313a953dcec458U,
  0x3e73b08dbbec4e1cU, 0x3e313a953d6c4e1cU, 0xbdfb12fd3e2275b3U, 0x3da275b33da275b3U,
  0x3e4ec458bcec4e1cU, 0x3e9ec47b3d84ebf0U, 0xbeb4ebcd3d13b0d1U, 0x3e29d8243d313a95U,
  0xbcb13a953d313a95U, 0x3dfb12fd3dcec458U, 0xbe2275b33dfb12fdU, 0x3e4761e73e1b1342U,
  0x3e0c4e60bd13b0d1U, 0x3e93b0d13da275b3U, 0xbeb4ebcd3dfb12fdU, 0x3e5626c9bbec4e1cU,
  0x3c6c4e1cbdb13a95U, 0x3db13a953e2275b3U, 0xbd93b0d13e1b1342U, 0x3eb4ebcd3cec4e1cU,
  0x3e1b1342bd6c4e1cU, 0x3d313a953d313a95U, 0xbe5626c93cb13a95U, 0x3e8fff993e4761e7U,
  0x3db13a953d84ebf0U, 0xbd13b0d13dcec458U, 0xbd313a95bd13b0d1U, 0x3ecb13203e2275b3U,
  0x3dfb12fdbdec4e1cU, 0x3e1b13423d13b0d1U, 0xbd313a95bbec4e1cU, 0x3e4ec4583dec4e1cU,
  0x3e389d06bd13b0d1U, 0x3d6c4e1c3d313a95U, 0xbe6c4e1cbdec4e1cU, 0x3ebfff763e5626c9U,
  0x3cec4e1c00000000U, 0x3dfb12fd3d93b0d1U, 0xbe813ab73e313a95U, 0x3e2275b33e93b0d1U,
  0xbec3b0af3e29d824U, 0xbe5626c9bead895cU, 0xbcec4e1cbdcec458U, 0x3e4ec458be389d06U,
  0xbe9ec47bbd4ec458U, 0xbd93b0d1bea626ebU, 0xbd93b0d1be5d893aU, 0x3e13b0d1bdbfff76U,
  0xbd6c4e1c3e84ebf0U, 0x3cb13a95be9ec47bU, 0x3e313a95bd84ebf0U, 0x3e313a95be389d06U,
  0xbdfb12fd3d93b0d1U, 0xbe1b1342be5626c9U, 0x3d313a95be2275b3U, 0x3efb12fd3e2275b3U,
  0x3c6c4e1c3e389d06U, 0x3e389d06be29d824U, 0x3d6c4e1cbd313a95U, 0x3ec761e73d84ebf0U,
  0xbbec4e1c3e7b12fdU, 0xbe313a953d84ebf0U, 0x3cec4e1c3e04ebf0U, 0x3e73b08dbe0c4e60U,
  0xbe1b13423e3fff76U, 0xbda275b3bd13b0d1U, 0x3d6c4e1cbda275b3U, 0x3dfb12fd00000000U,
  0xbe389d063e13b0d1U, 0xbe13b0d1be8fff99U, 0x3d84ebf03d313a95U, 0x3dec4e1cbdbfff76U,
  0xbe4761e700000000U, 0xbd13b0d1be4761e7U, 0xbd93b0d1bd313a95U, 0x3e389d06be13b0d1U,
  0xbd93b0d13e97620aU, 0xbbec4e1cbe13b0d1U, 0x3cb13a953d13b0d1U, 0x3e389d06bd6c4e1cU,
  0xbe4761e73e73b08dU, 0xbecb1320be8fff99U, 0x3d6c4e1c3dcec458U, 0xbcb13a95bead895cU,
  0xbd313a953e6c4e1cU, 0xbe0c4e60bdb13a95U, 0x3db13a95bd6c4e1cU, 0x3e5d893abe29d824U,
  0xbea275b33e5626c9U, 0xbe4761e7be813ab7U, 0xbcb13a95bd93b0d1U, 0x3da275b3bd6c4e1cU,
  0xbe64ebab3d84ebf0U, 0x3ddd893abe4761e7U, 0xbc6c4e1cbd93b0d1U, 0x3bec4e1cbe7b12fdU,
  0xbda275b33e73b08dU, 0x3e3fff76bebfff76U, 0xbd13b0d1be04ebf0U, 0x3ddd893a3e1b1342U,
  0x3bec4e1c3ea275b3U, 0xbd13b0d1bcec4e1cU, 0xbda275b3bdcec458U, 0xbd4ec458bdec4e1cU,
  0xbda275b33ea626ebU, 0xbe813ab7be93b0d1U, 0xbd6c4e1cbcec4e1cU, 0x3e73b08d3d6c4e1cU,
  0xbe2275b33ddd893aU, 0x3d84ebf000000000U, 0xbdbfff76bd84ebf0U, 0xbd13b0d1bcb13a95U,
  0x3da275b33e9ec47bU, 0xbe7b12fd3d313a95U, 0x3dbfff76bd313a95U, 0x3e7b12fdbebc4e3eU,
  0x3cec4e1cU, 0xbe5d893abd4ec458U, 0xbda275b33e1b1342U, 0x3e1b1342be4761e7U,
  0xbdbfff763ead895cU, 0xbdbfff76be64ebabU, 0xbd84ebf0bdbfff76U, 0x3e29d824be313a95U,
  0xbe29d8243e5d893aU, 0xbf2d895cbe9b1342U, 0x3dfb12fd3c6c4e1cU, 0x3ee13a72bedd893aU,
  0xbe3fff76bd13b0d1U, 0x3db13a95bea275b3U, 0x3e73b08dbdbfff76U, 0x3d313a95bbec4e1cU,
  0xbe13b0d1bcec4e1cU, 0xbd84ebf0bd6c4e1cU, 0x3e313a95bd93b0d1U, 0x3dcec458bd4ec458U,
  0xbe1b13423e4ec458U, 0xbd313a95bd93b0d1U, 0x3cec4e1c3dfb12fdU, 0x3e313a953e29d824U,
  0xbd313a953e4761e7U, 0xbcec4e1c3e4ec458U, 0x3d93b0d13d84ebf0U, 0x3ecb13203dfb12fdU,
  0x3dfb12fdbd4ec458U, 0x3e0c4e60U, 0x3e4761e73dbfff76U, 0x3e8c4e603d84ebf0U,
  0x3e0c4e603e389d06U, 0xbbec4e1cbd84ebf0U, 0x3e0c4e60bd13b0d1U, 0x3e3fff763bec4e1cU,
  0x3dcec4583e7b12fdU, 0xbcec4e1c3dcec458U, 0x3db13a95bd13b0d1U, 0x3e1b13423bec4e1cU,
  0xbe389d063e4761e7U, 0xbddd893abc6c4e1cU, 0x3e93b0d13d84ebf0U, 0x3cec4e1c3d6c4e1cU,
  0xbd313a953e29d824U, 0xbd6c4e1cbdfb12fdU, 0x3e97620a3bec4e1cU, 0x3ddd893abcb13a95U,
  0xbddd893a3d93b0d1U, 0xbe4761e7be29d824U, 0x3e8c4e60bcb13a95U, 0x3d13b0d1be389d06U,
  0xbd84ebf03d84ebf0U, 0xbe04ebf0bdcec458U, 0x3e6c4e1c3e3fff76U, 0x3dbfff76be2275b3U,
  0xbe2275b300000000U, 0xbe7b12fdbe04ebf0U, 0x3dbfff76bd93b0d1U, 0x3e0c4e60be2275b3U,
  0xbe64ebab3dec4e1cU, 0xbcec4e1cbdfb12fdU, 0x3e1b13423d6c4e1cU, 0xbd4ec458bdb13a95U,
  0xbdfb12fd3e0c4e60U, 0xbcb13a95bdb13a95U, 0x3d4ec4583dec4e1cU, 0x3cec4e1cbcb13a95U,
  0xbc6c4e1cbbec4e1cU, 0x3da275b3be4ec458U, 0x3ddd893abd313a95U, 0x3e29d8243e5626c9U,
  0xbc6c4e1c3e4ec458U, 0x3c6c4e1cbddd893aU, 0x3dfb12fd3e389d06U, 0xbdfb12fdbd84ebf0U,
  0xbd4ec4583e1b1342U, 0x3cb13a95bddd893aU, 0x3e1b1342bcec4e1cU, 0x3dec4e1c3c6c4e1cU,
  0x3d84ebf03dbfff76U, 0x3e2275b3bd6c4e1cU, 0x3dbfff76bd6c4e1cU, 0xbe0c4e603c6c4e1cU,
  0x3db13a953e04ebf0U, 0x3e1b1342bbec4e1cU, 0x3e2275b33e73b08dU, 0x3e1b1342be0c4e60U,
  0x3d4ec4583d13b0d1U, 0xbdbfff763dec4e1cU, 0x3e2275b33e813ab7U, 0x3e4ec458bcec4e1cU,
  0xbe2275b33e313a95U, 0xbd93b0d1be84ebf0U, 0x3dcec458bd84ebf0U, 0x3cec4e1cbda275b3U,
  0xbda275b33db13a95U, 0xbdec4e1cbe73b08dU, 0x3e4ec458bdb13a95U, 0xbd84ebf0be2275b3U,
  0x3f27ff88bdb13a95U, 0x3ef761c53f5626c9U, 0xbd13b0d13eb89d06U, 0xbe13b0d13eb89d06U,
  0x3ead895c3d84ebf0U, 0x3ecec4583efb12fdU, 0x3c6c4e1c3eb89d06U, 0x3d4ec4583e9ec47bU,
  0x3eefff543ddd893aU, 0x3e8c4e603f0c4e60U, 0x3cec4e1c3e9ec47bU, 0xbbec4e1c3ebc4e3eU,
  0x3eb4ebcdbe04ebf0U, 0x3ea9d8243ee89ce3U, 0x3d6c4e1c3cb13a95U, 0xbef3b08d3bec4e1cU,
  0x3dbfff76bdbfff76U, 0x3e2275b33ea275b3U, 0xbcb13a953d13b0d1U, 0xbe4ec4583e7b12fdU,
  0x3e0c4e603d4ec458U, 0x3ed275913e8fff99U, 0x3e13b0d13cb13a95U, 0xbe389d063e9ec47bU,
  0x3e4761e7bd4ec458U, 0x3edd893a3e889d28U, 0xbbec4e1c3dbfff76U, 0xbbec4e1c3e4ec458U,
  0x3eb89d063e1b1342U, 0x3e8fff993e8fff99U, 0x3d313a953da275b3U, 0xbe04ebf03ed9d801U,
  0x3e7b12fdbd13b0d1U, 0x3eb89d063efb12fdU, 0x3e13b0d13cb13a95U, 0xbcb13a953e5626c9U,
  0x3ee13a723d93b0d1U, 0x3ea626eb3ec761e7U, 0xbc6c4e1c3d13b0d1U, 0x3d4ec4583f013ab7U,
  0x3e93b0d1be29d824U, 0x3eefff543e4ec458U, 0x3da275b3bd13b0d1U, 0xbd313a953ef3b08dU,
  0x3e8c4e60bda275b3U, 0x3ea626eb3f089d28U, 0xbbec4e1c3d93b0d1U, 0x3d313a953e93b0d1U,
  0x3efec436bd313a95U, 0x3ecb13203ecb1320U, 0xbd4ec4583e13b0d1U, 0xbd13b0d13eefff54U,
  0x3e84ebf03e0c4e60U, 0x3e4ec4583efec436U, 0x3e2275b33e8fff99U, 0xbbec4e1c3eec4e1cU,
  0x3e8fff99bc6c4e1cU, 0x3cec4e1c3ea275b3U, 0x3e13b0d13e5d893aU, 0x3e389d063e13b0d1U,
  0x3ee4ebabbe2275b3U, 0x3da275b33ea626ebU, 0x3d93b0d13e64ebabU, 0xbbec4e1c3e64ebabU,
  0x3e13b0d1be13b0d1U, 0x3f06c48c3f11d835U, 0x3dbfff763ddd893aU, 0xbda275b33e813ab7U,
  0x3d4ec458bdcec458U, 0x3e313a953e64ebabU, 0x3d4ec4583e4761e7U, 0x3d4ec4583dfb12fdU,
  0xbd313a953ddd893aU, 0x3ebfff763dbfff76U, 0x3e2275b33e3fff76U, 0x3d13b0d13e97620aU,
  0x3dcec458bdec4e1cU, 0x3eec4e1c3eb89d06U, 0x3e13b0d13d6c4e1cU, 0xbbec4e1c3ecec458U,
  0x3e84ebf03d4ec458U, 0x3f2d895c3f11d835U, 0x3d13b0d13e6c4e1cU, 0xbe2275b33f15896dU,
  0x3ee89ce300000000U, 0x3f27ff883ed626c9U, 0x3e1b13423e2275b3U, 0xbd6c4e1c3f0e26fdU,
  0xbf0c4e60bd6c4e1cU, 0xbee13a72bf389d06U, 0x3dec4e1cbe84ebf0U, 0x3e0c4e60beec4e1cU,
  0xbe0c4e603db13a95U, 0xbe29d824befb12fdU, 0x3d84ebf0be389d06U, 0x3e13b0d1bdbfff76U,
  0xbe64ebabbd84ebf0U, 0xbe93b0d1bf0c4e60U, 0xbd4ec4583cb13a95U, 0x3cb13a95be889d28U,
  0xbe3fff763bec4e1cU, 0xbe889d28bf0a75c4U, 0x3c6c4e1cbc6c4e1cU, 0x3ec3b0afbdb13a95U,
  0xbe1b1342bcb13a95U, 0xbe8c4e60bec761e7U, 0xbcec4e1cbe1b1342U, 0x3ddd893abee13a72U,
  0xbe889d283ddd893aU, 0xbf0fff99beb89d06U, 0x3d93b0d13c6c4e1cU, 0x3dcec458bec3b0afU,
  0xbe1b13423d4ec458U, 0xbed626c9be73b08dU, 0xbdb13a953cb13a95U, 0x3e2275b3becb1320U,
  0xbea275b3bd4ec458U, 0xbecec458becec458U, 0x3e0c4e60bcb13a95U, 0x3d4ec458beefff54U,
  0xbd93b0d13d6c4e1cU, 0xbea9d824bf06c48cU, 0x3dfb12fdbddd893aU, 0x3d4ec458bf04ebf0U,
  0xbe389d063e2275b3U, 0xbefb12fdbea9d824U, 0xbd4ec4583c6c4e1cU, 0x3d84ebf0bee4ebabU,
  0xbe97620a3cb13a95U, 0xbf0fff99bf15896dU, 0x3e313a953dcec458U, 0xbe2275b3bf34ebcdU,
  0xbe313a953e2275b3U, 0xbf3e26dabf29d824U, 0x3db13a953c6c4e1cU, 0x3ddd893abee89ce3U,
  0xbea626eb3d84ebf0U, 0xbeb13a95beefff54U, 0x3c6c4e1cbe313a95U, 0xbe4761e7bf0a75c4U,
  0xbe6c4e1c3e0c4e60U, 0xbeb13a95bec761e7U, 0x3d13b0d1bd93b0d1U, 0x3d6c4e1cbee89ce3U,
  0xbe8fff993bec4e1cU, 0xbedd893abee4ebabU, 0x3d13b0d1bdec4e1cU, 0x3dfb12fdbeb13a95U,
  0xbe1b1342bcb13a95U, 0xbe813ab7bebfff76U, 0x3e29d824bdcec458U, 0x3d4ec458be6c4e1cU,
  0xbe813ab700000000U, 0xbeb13a95bf0e26fdU, 0x3e29d8243c6c4e1cU, 0x3e04ebf0bedd893aU,
  0xbe5d893a3e1b1342U, 0xbf34ebcdbf11d835U, 0xbd13b0d1be313a95U, 0xbd6c4e1cbf0a75c4U,
  0xbe889d283dec4e1cU, 0xbf331331beec4e1cU, 0xbd84ebf0bcec4e1cU, 0x3e3fff76beec4e1cU,
  0xbe8c4e603e0c4e60U, 0xbf0e26fdbedd893aU, 0x3dec4e1c3bec4e1cU, 0xbdbfff76beec4e1cU,
  0xbdb13a95bd84ebf0U, 0xbf389d06bf06c48cU, 0x3e1b1342bddd893aU, 0x3dec4e1cbefb12fdU,
  0xbe8fff993dbfff76U, 0xbf2626ebbf06c48cU, 0xbd84ebf0be389d06U, 0xbd313a95bf27ff88U,
  0x3ec761e73dcec458U, 0x3d13b0d13e73b08dU, 0x3d4ec4583e13b0d1U, 0x3e5d893a3cb13a95U,
  0x3ead895c3d93b0d1U, 0x3d84ebf03e04ebf0U, 0x3e0c4e603d313a95U, 0x3e389d063e1b1342U,
  0x3e8c4e6000000000U, 0xbcb13a953e8fff99U, 0x3d6c4e1c3cb13a95U, 0x3d84ebf03c6c4e1cU,
  0x3e389d063da275b3U, 0x3bec4e1c3e29d824U, 0x3bec4e1cbd313a95U, 0xbe13b0d100000000U,
  0x3d93b0d13bec4e1cU, 0x3d93b0d13e1b1342U, 0xbd6c4e1cU, 0x3e13b0d13ddd893aU,
  0xbbec4e1c3ddd893aU, 0xbd4ec4583e04ebf0U, 0x3d93b0d1bd6c4e1cU, 0x3d4ec4583e4761e7U,
  0x3e0c4e603e13b0d1U, 0x3e84ebf03e13b0d1U, 0x3da275b33da275b3U, 0x3ea275b33e04ebf0U,
  0x3e5d893a3dfb12fdU, 0x3e0c4e603d6c4e1cU, 0xbcb13a953e0c4e60U, 0x3ea9d8243d93b0d1U,
  0x3da275b3bc6c4e1cU, 0x3dec4e1c3e9ec47bU, 0x3d13b0d13e6c4e1cU, 0x3e9b13423ddd893aU,
  0x3ddd893abc6c4e1cU, 0x3dfb12fd3e9b1342U, 0x3db13a95bd6c4e1cU, 0x3d93b0d13e4ec458U,
  0x3dec4e1cbdec4e1cU, 0x3e5d893a3e84ebf0U, 0x3ddd893abcec4e1cU, 0x3db13a953d13b0d1U,
  0x3e4761e73e6c4e1cU, 0x3d13b0d13e313a95U, 0x3d4ec4583e5626c9U, 0x3d93b0d13dcec458U,
  0xbd93b0d1U, 0x3d93b0d13dbfff76U, 0x3dec4e1c3e4ec458U, 0x3d6c4e1c3e4761e7U,
  0x3e73b08d3dbfff76U, 0xbd6c4e1c3d93b0d1U, 0x3dcec4583d4ec458U, 0x3d313a953c6c4e1cU,
  0x3da275b33e1b1342U, 0x3d93b0d13e9ec47bU, 0x3cb13a953dfb12fdU, 0x3e3fff763e313a95U,
  0x3d13b0d13ddd893aU, 0x3d313a953e4ec458U, 0x3cec4e1cbd313a95U, 0x3e389d063e73b08dU,
  0x3e1b1342bd84ebf0U, 0x3e4ec4583d93b0d1U, 0x3e389d06U, 0x3e8c4e603e64ebabU,
  0xbcb13a95bbec4e1cU, 0x3d84ebf03da275b3U, 0x3e0c4e603db13a95U, 0x3e64ebabbdbfff76U,
  0x3dbfff76bcec4e1cU, 0x3e4761e73cec4e1cU, 0x3d13b0d1bda275b3U, 0x3e7b12fdU,
  0x3da275b3bbec4e1cU, 0x3e389d063db13a95U, 0x3d84ebf0bd93b0d1U, 0xbd13b0d13e813ab7U,
  0x3e0c4e603e1b1342U, 0x3e9ec47b3e4761e7U, 0x3dcec4583e3fff76U, 0x3db13a953d6c4e1cU,
  0x3dfb12fd3e13b0d1U, 0x3e889d283e7b12fdU, 0xbbec4e1c3d4ec458U, 0x3e0c4e603ec761e7U,
  0xbeefff54be5d893aU, 0xbe8fff99bf29d824U, 0x3cec4e1cbeefff54U, 0x3e813ab7becb1320U,
  0xbeb13a953d13b0d1U, 0xbe8fff99bedd893aU, 0x3d4ec458be813ab7U, 0x3d13b0d1bee4ebabU,
  0xbea9d824bddd893aU, 0xbebc4e3ebeb4ebcdU, 0x3d13b0d1be64ebabU, 0x3da275b3bf0c4e60U,
  0xbebfff76be0c4e60U, 0xbef761c5bebfff76U, 0x3bec4e1cbead895cU, 0x3e8c4e60bea275b3U,
  0xbdec4e1cbbec4e1cU, 0xbeefff54bedd893aU, 0x3da275b3be389d06U, 0x3ea9d824bf2275b3U,
  0xbd93b0d13bec4e1cU, 0xbf15896dbe9ec47bU, 0x3d13b0d1bbec4e1cU, 0x3dbfff76becb1320U,
  0xbe4761e73e313a95U, 0xbea275b3be8fff99U, 0xbcec4e1cbe889d28U, 0xbdcec458bee13a72U,
  0xbe7b12fd00000000U, 0xbea9d824be813ab7U, 0x3d313a95be29d824U, 0x3db13a95bf013ab7U,
  0xbe4ec458bd93b0d1U, 0xbee89ce3be93b0d1U, 0x3e1b1342bdb13a95U, 0xbd4ec458bf27ff88U,
  0xbeb4ebcdbd6c4e1cU, 0xbf031353bf11d835U, 0xbc6c4e1cbea9d824U, 0x3dcec458bf11d835U,
  0xbe73b08d3dcec458U, 0xbf36c469bf013ab7U, 0x3ddd893abdbfff76U, 0x3ddd893abf11d835U,
  0xbe29d824be13b0d1U, 0xbf06c48cbf013ab7U, 0xbd84ebf0be29d824U, 0x3d4ec458bf389d06U,
  0xbe4ec4583d313a95U, 0xbf031353bf331331U, 0xbcb13a95bea626ebU, 0xbe3fff76bf0c4e60U,
  0xbf04ebf03d13b0d1U, 0xbf06c48cbed626c9U, 0x3e313a95be389d06U, 0xbbec4e1cbf27ff88U,
  0xbe7b12fdbdfb12fdU, 0xbeec4e1cbef3b08dU, 0xbc6c4e1cbe2275b3U, 0x3e1b1342befb12fdU,
  0xbe73b08dbcb13a95U, 0xbe9b1342befec436U, 0x3d93b0d1be97620aU, 0x3cb13a95bf06c48cU,
  0xbea626eb3c6c4e1cU, 0xbee4ebabbecec458U, 0xbcb13a95be04ebf0U, 0xbd6c4e1cbf331331U,
  0xbead895cbd13b0d1U, 0xbf29d824beec4e1cU, 0x3bec4e1cbe97620aU, 0xbdec4e1cbf06c48cU,
  0x3cec4e1cbe13b0d1U, 0xbf04ebf0bebfff76U, 0x3cec4e1c3d4ec458U, 0x3e3fff76bebfff76U,
  0x3cec4e1cbddd893aU, 0xbef3b08dbe84ebf0U, 0x3dec4e1c3dec4e1cU, 0x3c6c4e1cbeec4e1cU,
  0xbcb13a95bd84ebf0U, 0xbf0e26fdbef761c5U, 0x3d93b0d13cb13a95U, 0x3e4ec458beefff54U,
  0xbe93b0d1bdfb12fdU, 0xbf389d06bed626c9U, 0x3d6c4e1cbe8c4e60U, 0x3e97620abf1cebdeU,
  0x3e4ec4583e13b0d1U, 0x3dbfff763e9ec47bU, 0xbe889d283dec4e1cU, 0x3e73b08d3e9ec47bU,
  0x3e5d893a3d84ebf0U, 0x3dbfff763e73b08dU, 0xbbec4e1c3dfb12fdU, 0x3d93b0d13e4ec458U,
  0x3e389d06bda275b3U, 0x3c6c4e1c3dbfff76U, 0xbdbfff763d6c4e1cU, 0x3e2275b3U,
  0xbd313a95bdcec458U, 0x3ddd893a3e2275b3U, 0xbe13b0d13e389d06U, 0x3e04ebf03e3fff76U,
  0x3e29d8243db13a95U, 0x3e3fff7600000000U, 0xbe13b0d1bc6c4e1cU, 0x3ec3b0af3e64ebabU,
  0x3c6c4e1cbe3fff76U, 0x3e8fff993e4761e7U, 0xbe813ab73cec4e1cU, 0x3e6c4e1c3d313a95U,
  0x3c6c4e1cbd84ebf0U, 0x3c6c4e1c3e04ebf0U, 0xbea275b33e64ebabU, 0x3e5626c93dbfff76U,
  0x3c6c4e1c3e04ebf0U, 0x3dec4e1c3cb13a95U, 0xbe813ab73e2275b3U, 0x3e5626c93e13b0d1U,
  0x3e84ebf03d313a95U, 0x3e3fff763dec4e1cU, 0xbe6c4e1c3e4761e7U, 0x3e93b0d13dec4e1cU,
  0x3e13b0d1be0c4e60U, 0xbbec4e1c3cb13a95U, 0xbe5626c93d84ebf0U, 0x3dfb12fd3e4761e7U,
  0x3e29d824be64ebabU, 0x3ea9d8243e389d06U, 0xbddd893abbec4e1cU, 0x3e4ec45800000000U,
  0x3dcec4583bec4e1cU, 0x3e889d283cb13a95U, 0xbd84ebf03d6c4e1cU, 0x3e64ebab3c6c4e1cU,
  0x3d13b0d100000000U, 0x3e4761e73cec4e1cU, 0xbe4ec4583e389d06U, 0x3e8c4e603c6c4e1cU,
  0x3e4761e73d84ebf0U, 0x3e5626c93e73b08dU, 0xbe813ab73bec4e1cU, 0x3e1b13423c6c4e1cU,
  0x3e4ec458bdcec458U, 0x3e29d8243cec4e1cU, 0xbe7b12fdbd313a95U, 0x3e2275b33cec4e1cU,
  0x3e389d06bd84ebf0U, 0x3e13b0d13e6c4e1cU, 0xbe0c4e603e3fff76U, 0x3d6c4e1c3e389d06U,
  0x3d6c4e1c3dcec458U, 0x3dcec458bbec4e1cU, 0xbe889d283d4ec458U, 0x3e5626c9bd313a95U,
  0xbbec4e1cbd13b0d1U, 0xbcb13a953ddd893aU, 0xbdfb12fdbcec4e1cU, 0x3e3fff763c6c4e1cU,
  0x3e84ebf0bddd893aU, 0x3d93b0d13da275b3U, 0xbdec4e1c3ddd893aU, 0x3e5d893a3cb13a95U,
  0x3e5626c93e04ebf0U, 0x3dfb12fd3e5d893aU, 0xbd313a953e4ec458U, 0x3eb89d063cec4e1cU,
  0x3e13b0d1be1b1342U, 0x3e64ebab3d84ebf0U, 0xbe813ab7bbec4e1cU, 0x3e8fff993e6c4e1cU,
  0x3db13a953d6c4e1cU, 0x3e4ec4583dcec458U, 0xbe1b13423cb13a95U, 0x3e9b13423db13a95U,
  0xbdfb12fd00000000U, 0x3d84ebf03cec4e1cU, 0x3e5626c9bbec4e1cU, 0xbd4ec458bdcec458U,
  0x3d93b0d1bd93b0d1U, 0x3d84ebf0U, 0x3d93b0d1bd84ebf0U, 0xbcec4e1cbd13b0d1U,
  0x3da275b33dbfff76U, 0xbd13b0d13bec4e1cU, 0x3e813ab73db13a95U, 0x3e5d893a3d4ec458U,
  0x3d13b0d13d6c4e1cU, 0xbd313a95bcec4e1cU, 0x3dec4e1cbcb13a95U, 0x3d13b0d13e13b0d1U,
  0x3dec4e1c3d4ec458U, 0x3e84ebf03d4ec458U, 0x3d84ebf03e1b1342U, 0x3d13b0d13d4ec458U,
  0xbcb13a953d84ebf0U, 0xbc6c4e1c3d93b0d1U, 0x3dbfff763dcec458U, 0xbe2275b3bd6c4e1cU,
  0xbdb13a95bbec4e1cU, 0x3db13a953cec4e1cU, 0x3e29d8243c6c4e1cU, 0xbe13b0d13dcec458U,
  0xbdec4e1cbddd893aU, 0x3d4ec458bc6c4e1cU, 0x3ea275b33cb13a95U, 0xbe0c4e60bd313a95U,
  0xbd313a953d93b0d1U, 0xbd13b0d13c6c4e1cU, 0x3ea626eb3dbfff76U, 0xbe0c4e60be13b0d1U,
  0x3d13b0d1bd93b0d1U, 0xbbec4e1c3d313a95U, 0x3e889d28bcec4e1cU, 0x3d13b0d13cec4e1cU,
  0xbd93b0d1be04ebf0U, 0xbe1b1342bdb13a95U, 0x3d6c4e1c3cb13a95U, 0xbd13b0d1be2275b3U,
  0xbd84ebf0bd6c4e1cU, 0xbd93b0d1bd4ec458U, 0x3e5626c93e2275b3U, 0xbcb13a95bddd893aU,
  0xbdb13a953c6c4e1cU, 0xbe2275b3bd84ebf0U, 0x3e889d28bd93b0d1U, 0xbe04ebf03d93b0d1U,
  0x3ddd893a3d13b0d1U, 0xbe04ebf0bddd893aU, 0x3e5626c93d93b0d1U, 0xbcec4e1cbe13b0d1U,
  0xbe4761e7be2275b3U, 0xbd4ec458be313a95U, 0x3ddd893a3da275b3U, 0xbd6c4e1c3d84ebf0U,
  0xbd93b0d13bec4e1cU, 0x3cb13a953ddd893aU, 0x3e3fff763e313a95U, 0x3da275b3bd6c4e1cU,
  0x3c6c4e1cbda275b3U, 0xbdb13a953dcec458U, 0xbc6c4e1cbcb13a95U, 0xbe64ebabbbec4e1cU,
  0x3d93b0d13d93b0d1U, 0xbbec4e1c3e13b0d1U, 0x3e8fff99bd313a95U, 0xbd13b0d13cec4e1cU,
  0x3d13b0d13d313a95U, 0xbd13b0d1bd13b0d1U, 0x3dfb12fd3e389d06U, 0xbe5d893a3db13a95U,
  0x3da275b33d4ec458U, 0x3bec4e1c3c6c4e1cU, 0x3e73b08d3e1b1342U, 0xbe0c4e603d4ec458U,
  0xbdcec458bdfb12fdU, 0xbe4ec458be13b0d1U, 0x3e889d28bd313a95U, 0xbdb13a95bcec4e1cU,
  0xbbec4e1cbddd893aU, 0xbddd893abe389d06U, 0x3d313a95bdbfff76U, 0xbe04ebf0bd313a95U,
  0x3f0c4e60bd313a95U, 0x3ea275b33f0e26fdU, 0x3dec4e1c3e0c4e60U, 0xbe5626c93eb13a95U,
  0x3e4ec4583d313a95U, 0x3e7b12fd3e8c4e60U, 0x3e0c4e603e1b1342U, 0xbe0c4e603e73b08dU,
  0x3ec3b0afbdbfff76U, 0x3e29d8243dcec458U, 0x3db13a953d84ebf0U, 0xbdcec4583e889d28U,
  0x3dbfff76bda275b3U, 0x3d93b0d13c6c4e1cU, 0x3e3fff763cb13a95U, 0xbe97620a3dcec458U,
  0x3dcec458be2275b3U, 0x3dbfff763d6c4e1cU, 0xbd4ec4583e04ebf0U, 0xbe29d824bd4ec458U,
  0x3bec4e1cbdcec458U, 0x3e1b13423e1b1342U, 0x3c6c4e1c3e5d893aU, 0xbec3b0af3e64ebabU,
  0x3ea626eb3d13b0d1U, 0x3e5d893a3e04ebf0U, 0x3e5d893abd4ec458U, 0xbe93b0d13e29d824U,
  0x3e7b12fdbdb13a95U, 0x3ebc4e3e3d6c4e1cU, 0x3d13b0d13e4ec458U, 0xbe64ebab3e2275b3U,
  0x3dbfff763ddd893aU, 0x3e1b13423e889d28U, 0x3bec4e1c3dbfff76U, 0xbe0c4e603dfb12fdU,
  0x3e0c4e60bd6c4e1cU, 0x3ea275b33e8fff99U, 0x3cec4e1c3d313a95U, 0xbe84ebf03e84ebf0U,
